#version: 0.2
n g
a ng
n a
Ġ s
Ġ m
a n
Ġ p
Ġs a
Ġ na
a t
Ġ ng
a l
a g
Ġ k
a y
i n
Ġ ang
i t
a r
g a
i l
a s
a m
Ġ b
Ġ t
o n
a k
i s
Ġm ga
i ng
Ġ n
e r
o ng
a h
Ġ at
a p
Ġ d
Ġ l
u l
a b
Ġ h
i y
i na
Ġp ag
a w
Ġ ay
e s
u m
o r
e n
Ġ P
a d
i g
u n
i b
Ġ A
o s
u ng
u s
Ġ is
Ġ M
Ġ S
i k
it o
Ġp ar
r e
Ġ g
d i
i p
a na
i m
t o
r o
Ġm ag
Ġ o
u p
il ang
Ġis ang
iy a
Ġna g
Ġ D
u t
Ġ C
Ġpar a
Ġ c
i d
in di
Ġk an
u k
o l
e l
Ġ w
u h
Ġ B
Ġn i
o t
al a
Ġp a
u r
en t
â Ģ
Ġ K
i c
y on
Ġ ito
Ġ N
o k
Ġ ak
Ġh indi
i r
an d
Ġk ung
an o
Ġ I
Ġ T
y o
Ġ r
e t
Ġm ay
Ġk o
il a
Ġ in
i on
. .
y a
e d
u b
Ġ f
Ġk a
e m
Ġna k
al am
o d
Ġm a
Ġk ay
Ġ L
u g
i h
Ġt a
Ġ H
o m
Ġ G
Ġna m
ul a
Ġs i
Ġ R
Ġ (
a c
Ġm ak
h e
u w
it a
y ang
Ġ up
Ġp ang
Ġpag k
s a
Ġ ga
Ġ re
Ġ ib
u na
t a
e k
Ġn ang
Ġm at
Ġup ang
Ġm as
Ġk as
ah il
Ġp am
Ġ 1
l e
Ġ E
ap at
an t
Ġ iy
i w
ĠA ng
Ġ 2
al ak
Ġp ina
Ġ J
Ġl ang
al ang
ar i
in o
al ag
Ġb uh
e c
o b
t r
Ġm o
Ġd ahil
aw a
Ġp ro
Ġak o
o g
Ġn iya
Ġm ula
ah at
Ġs iya
er s
Ġkan yang
Ġk at
Ġ F
r es
Ġb ag
Ġo f
Ġna t
Ġ e
w a
Ġnam an
s ing
il ip
A ng
o y
am a
at a
Ġt he
iy ang
ah an
Ġm al
ap ag
Ġ ar
Ġ um
ab a
alam ang
b i
ap os
il i
Ġ it
t er
as yon
sing aw
Ġta o
it an
ang g
ay a
Ġh alamang
am ang
Ġ âĢ
Ġl ahat
ay an
at ion
Ġr in
Ġiy ong
0 0
t e
y an
Ġkan ilang
er o
Ġk am
iy os
p ap
Ġt o
i v
na l
e p
es t
Ġ O
Ġbuh ok
Ġn ito
d o
Ġma a
ul ong
Ġ an
or m
ĠD iyos
Ġt r
Ġs ina
l o
m it
ar am
Ġ ip
is t
im b
ay o
Ġp ana
uk o
in e
Ġ al
ĠP ang
Ġm ah
ay on
it y
Ġk ah
m ent
Ġ "
Ġd in
Ġpag b
ar ing
Ġk al
at ing
Ġ W
at e
i o
Ġn o
c h
i e
Ġ U
a in
al an
i a
ar a
o p
aw ang
Ġk uko
Ġ -
Ġk ab
ib ig
m ot
Ġpag ga
Ġs ila
or t
Ġp at
Ġ a
Ġpam am
ana n
.. .
an s
y ong
Ġg ina
Ġm an
Ġ v
âĢ Ļ
Ġm ab
en s
aw an
ar o
t or
ah ay
Ġl amang
Ġw alang
ak a
Ġl ab
Ġ and
Ġn ila
Ġib a
Ġpa ano
Ġpag s
Ġ il
s t
Ġb ilang
u d
Ġ y
p l
Ġ am
as a
Ġd al
alag a
e g
e b
un d
ung k
Ġp o
Ġng a
S a
Ġk ap
and a
k a
Ġ or
Ġ =
âĢ Ŀ
Ġ V
in t
ic e
ĠS a
Ġt um
al ing
il l
ad o
Ġd i
h a
q u
ag d
Ġk ar
un t
Ġt h
ab ang
al i
c e
ina s
Ġ ik
Ġk um
ilang an
i al
al o
Ġb an
Ġis a
Ġpamam ag
Ġpag t
uh a
u an
Ġar aw
Ġpag l
Ġna p
Ġkay a
Ġs us
n o
ar t
, "
Ġ2 0
Ġo p
ul at
Ġpamamag itan
ina l
Ġmaa aring
Ġ 3
Ġs um
e na
Ġ im
ana k
Ġl um
Ġ ag
Ġb a
Ġno ong
Ġ ano
un it
ĠP ag
Ġnag s
ĠA t
Ġmag k
in d
ul o
ih an
o c
it ong
Ġg um
Ġd apat
Ġp an
am it
id ad
Ġak ing
as an
' t
Ġpag pap
Ġ as
Ġng ayon
agd ag
Ġm ap
ĠI n
ĠâĢ ľ
Ġsa an
Ġ i
ul ang
ab i
at apos
e h
Ġna s
us to
id ent
al ik
ag i
Ġt ungk
a v
Ġt ul
ĠC h
in ig
Ġb at
Ġsa l
Ġ ilang
un od
Ġpagga mot
ang k
ang ga
alak i
Ġs in
es s
Ġm aram
Ġpina k
ĠP h
ina t
as t
s yon
ĠK ung
Ġb um
h on
v er
in s
am p
u ro
uh an
Ġl o
Ġban sa
Ġt ag
al at
al im
Ġd ito
en d
en to
Ġpag p
m an
Ġp res
e ng
Ġna sa
Ġm ad
is yon
Ġ '
ik a
Ġr es
Ġbuh ay
Ġpa a
Ġw ala
ana p
p ek
Ġpar as
angg ang
ak it
Ġp l
Ġtungk ol
ag o
t h
ar d
m a
Ġib ang
Ġk on
ab as
Ġta on
Ġsa r
it e
am an
aro on
ĠP ilip
an ong
Ġpagk ak
Ġ20 1
us t
f f
Ġp as
ĠA l
Ġmag ing
ur i
t ion
Ġ ina
id e
r a
Ġp os
ar ap
A N
un ang
Ġc on
ig h
at ay
Ġ on
io nal
ig it
Ġ anak
ag awa
ab ah
ĠH indi
Ġnat in
una n
Ġb u
Ġum ano
um p
ilip p
aw ala
Ġh anggang
p ort
am b
l y
Ġs t
il ing
ig ing
u e
Ġp r
em b
Ġsa k
angga p
y al
a an
ĠPang ino
alam an
ĠM ay
Ġp ak
Ġh al
m p
Ġp al
d ib
Ġ ap
ĠPh ilipp
Ġlab an
Ġs h
Ġc om
ĠM ar
Ġpag h
h an
Ġm ong
Ġmat apos
ĠA r
uw ag
imb ang
iv e
Ġmas k
Ġp er
Ġf or
ang y
) .
ĠC ity
Ġnag b
Ġt at
o to
ah agi
ih in
na n
ip ag
Ġat ing
i an
v ie
i ga
u c
em a
Ġk ina
Ġkan iyang
in is
Ġnam in
Ġta ong
e w
Ġ 4
Ġpina g
Ġh abang
ik o
e y
i z
Ġs er
ut er
Ġb ata
Ġb aw
Ġp um
Ġt imbang
c o
u to
us ay
al ita
Ġp ero
Ġdal awang
Ġlo ob
ur a
alak ing
Ġbag ay
abah o
Ġk ag
Ġsina bi
il ala
Ġna b
Ġk ong
Ġkam i
ul oy
ana g
Ġmat a
i es
Ġ 5
vie w
in es
Ġb ul
Ġk apag
ay ong
Ġmag s
d a
ĠI s
Ġpinak am
ibig ay
Ġkah it
ib dib
Ġd um
Ġnag p
Ġs p
Ġpana hon
Ġkan ya
Ġn iyang
ĠA n
is m
ul i
ak as
l a
u re
Ġmaa ari
Ġga wa
ak at
ahay ag
Ġn itong
Ġgina ga
ul ing
ar ang
Ġng unit
Ġ j
Ġs iyang
Ġ ac
Ġkas ama
or e
al it
ug ar
Ġw orm
ing g
Ġnag k
l es
Ġ ad
ar an
iw ala
Ġb ahay
ĠM ga
Ġd ibdib
A yon
Ġ Y
Ġp ul
Ġc h
o w
Ġtul ad
Ġd e
Ġb aba
Ġe x
r is
b ay
ar y
ar al
ĠC om
Ġl ugar
Ġmaram ing
ad a
ag a
Ġor as
Ġt ayo
ina g
Ġp ap
Ġg r
ak ita
Ġh e
ub l
ĠPangino on
Ġp in
us ap
Ġd is
ĠD i
ap on
Ġam ing
Ġmag p
l ang
ar e
Ġd r
Ġbag o
Ġak in
Ġnag ing
is yo
Ġc o
ab ing
t im
w in
Ġpagk atapos
il an
âĢ ¦
Ġga mit
d uk
Ġre view
uter te
em ent
al l
Ġpara an
ap it
en c
Ġ ab
i f
b o
or d
ir ap
aw ag
um ang
Ġb uw
ĠM ag
and ang
g r
or k
ĠD uterte
il is
Ġbaw at
Ġb as
Ġbag ong
ĠPilip inas
ag al
il ya
Ġay on
i it
is a
ug na
Ġnag t
Ġpro b
ĠI to
Ġiy o
s p
Ġ alam
Ġit ong
is ta
im ula
ul an
Ġkas i
di a
Ġim p
ĠN ag
Ġt in
Ġl ib
Ġkay o
Ġkat awan
p ag
ung an
Ġs up
Ġm am
at o
Ġg an
igh t
Ġb ahagi
is ip
Ġy ung
ah ala
Ġil alim
on s
ĠN g
Ġm ar
Ġka ilangan
Ġm e
ĠM a
Ġ unang
ul t
uh ay
Ġd o
ug an
ig t
ĠM as
K ung
Ġ el
Ġlang is
Ġkan ila
r y
iy on
Ġh um
ad ong
iy ak
alag ang
c k
ĠU n
Ġd ating
Ġk ang
ut i
Ġbu ong
ar awan
ĠM an
Ġd aw
l ong
Ġna r
ana y
k o
Ġkas al
Ġb e
a ir
un o
ig ay
un ta
Ġmag b
h er
Ġn in
Ġsa b
ac k
s ak
ig o
ang a
Ġbaba e
un do
Ġs ig
ec t
una y
il it
Ġpag d
el l
an ya
Ġmak ak
Ġre c
ana s
ina w
Ġnak at
Ġg usto
e x
Ġpro duk
r i
ĠS t
ina bi
ro on
as ok
ah in
us o
or s
00 0
Ġl up
na t
Ġpagb ab
na p
M A
Ġpagk awala
Ġin ter
ĠâĢ ĺ
Ġ 6
Ġsar ili
ag amit
Ġkam ay
ob y
Ġak ong
ut an
Ġpres yo
Ġn il
Ġgina wa
iw anag
es us
al is
Ġ1 9
Ġh igit
ant e
l as
os t
al as
ĠP res
Ġga win
aw ak
Ġt alaga
Ġop is
H indi
o h
Ġpar t
ĠS ena
Ġb ayan
b ang
) ,
Ġtr abaho
Ġm ang
Ġ ek
em p
p at
ĠT r
Ġm uk
I L
Ġsa bi
at ag
a o
Ġnak ak
ident e
m er
Ġparas ito
ib le
Ġnag l
angy ar
ay s
ag e
t ib
Ġgawa in
e v
ik ita
Ġan umang
Ġb in
Ġpul is
Ġna n
ay un
re t
er al
it es
Ġik aw
Ġs ub
Ġk ak
Ġpam ilya
Ġnak a
Ġt ub
N ag
u o
iy an
ay ag
Ġ1 0
âĢ ľ
ĠPang ulong
p o
Ġb it
ĠN at
Ġiy on
ĠPhilipp ines
Ġ Q
a aral
h ang
ur ing
o ur
v e
h ing
ir a
ul ar
Ġh in
Ġbul ate
ik tim
e ar
Ġ es
us e
ina n
il e
Ġk in
Ġ ed
Ġs ilang
er no
i re
d e
Ġnag pap
' s
Ġip ina
ĠA s
l am
at i
up o
ĠP ro
ism o
ol ice
ah e
l og
ab ot
Ġ 7
Ġbuw an
r u
enc y
ab ag
Ġb ig
is s
Ġn ilang
Ġpags as
Ġsina s
Ġsal ita
Ġkas o
Ġkay sa
ic k
Ġb ar
um b
Ġp ahayag
Ġin yong
Ġg ag
.. ..
uw a
S inabi
Ġb akit
aw alan
Ġsus o
Ġmag iging
Ġop er
Ġth at
er m
z on
Ġb iktim
Ġprob l
ew s
ur ang
Ġl alaki
el a
r an
. "
in iwala
Ġga mot
iw an
ro l
o od
I N
ib a
ĠM ak
et a
it h
Ġ aw
Ġmuk ha
Ġ uri
an yang
Ġl ik
ĠA b
ris to
at an
Ġm undo
d er
Ġre l
Ġs ang
us yon
o ut
Ġk un
agdag an
Ġsab ihin
ĠD ep
Ġmal iit
Ġna l
s o
Ġ yo
ul it
Ġ ...
Ġg oby
ay ang
Ġe pek
at ak
ent e
ĠP a
ĠJ esus
Ġp ab
ah ang
Ġkum p
Ġw h
ut in
er t
d or
h i
. âĢĿ
ĠS ec
p it
ugna y
Ġl alo
I to
y e
ĠPhilipp ine
ic al
uh in
ingg o
Ġ ant
im e
Ġm ana
Ġm alaking
iw ang
er a
ĠS an
2 0
Ġtub ig
Ġnin yo
Ġparas ites
m un
Ġ est
ik al
Ġpang alan
p e
ibig an
Ġna is
Ġbiktim a
Ġnang y
ul ad
Ġgoby erno
e ad
Ġl al
h in
l ine
us an
ide o
ac e
ab an
Ġ 8
Ġproduk to
Ġt unay
ib l
Ġsak it
alak as
ig an
A t
Ġt inat
res s
art ment
ac h
uk u
m as
Ġpagga mit
na k
Ġnag h
ie f
! !
Ġt ulong
m am
ĠMan ila
ak o
an y
Ġof f
w ang
h anan
s od
ah usay
aw in
ilang ang
ĠE n
Ġtat long
Ġgum awa
ul og
igt as
arang ay
Ġb alat
en ce
is h
re c
Ġ Z
ĠâĢ ĵ
Ġpagk ain
ing in
al ay
as e
Ġn eg
ĠN a
M AN
Ġmak at
a ari
Ġ2 00
Ġmah usay
Ġna ga
Ġf ung
Ġopis yal
Ġp uw
Ġk il
Ġar e
Ġin il
Ġprobl ema
Ġdahil an
Ġw e
Ġser b
orm asyon
ilip ino
Ġdo on
am i
Ġpro gr
e e
Ġnas abing
una s
ĠDi os
ir it
Ġl im
ĠB ibl
Ġb uk
Ġ ro
ar ating
l at
it ang
Ġr ing
os e
ag ay
ac t
ab le
Ġs an
ĠP ero
Ġmag t
Ġpagb aba
Ġga bi
P ag
uk an
ĠK aya
Ġl arawan
ab ay
ul ta
o nal
ahala an
ĠPres ident
Ġm il
Ġw ika
o v
apat id
k al
up ad
k at
ek t
Ġ 9
Ġpar eh
o na
on d
M ag
ĠK anyang
ari an
Ġsus pek
er y
Ġga m
Ġs c
Ġmata as
ab aw
Ġbat as
l et
Ġkab ilang
g e
Ġ .
ug o
re at
Ġkah apon
s e
o ver
ĠR ep
ad ala
at ang
Ġmaram i
im p
d am
Ġpos ible
al in
ing nan
P A
et ro
Ġ [
re k
Ġb ang
Ġmagk aroon
Ġnags as
Ġna h
Ġh uling
c om
ig n
ay os
Ġmab ilis
oto hanan
ul ugan
m ed
ĠG MA
ation s
Ġpag itan
re am
ĠNat ional
Ġo ut
ĠA no
Ġs o
ĠP olice
Ġsa na
Ġpak ik
Ġgamit in
ir an
Ġm in
Ġp ubl
Ġv ideo
ĠMas k
ina h
Ġp ers
Ġin s
Ġn ya
Ġsa m
ĠPang ulo
in k
ul ot
Ġpat uloy
Ġre g
Ġr aw
er n
f t
r ist
Ġpar ang
Ġt ak
ara an
Ġpagkak ata
ak i
l im
Ġimp ormasyon
Ġe h
Ġserb isyo
am ant
s ik
is in
emb ro
Ġmay roon
Ġw eb
Ġk aram
Ġnang ang
ig il
ih ang
Ġka ibigan
ĠB r
g an
IL A
ul ay
Ġd ok
s er
on t
ay ari
he he
ara ang
Ġ en
ah al
Â Ń
Ġam in
Ġh arap
am ina
Ġt e
Ġginaga wa
aw i
ĠE sp
Ġb ay
Ġb ina
ag an
Ġlup a
ĠK a
Ġp uso
Ġb ak
at as
di c
ah anap
os es
ĠA qu
ik ong
ans in
ĠDep artment
Ġpana na
Ġs angk
ĠS iya
Ġ imb
Ġn ot
Ġ /
Ġ ya
inis tr
ata as
ĠPilip ino
Ġ ulat
Ġna na
1 9
ec tion
ik ha
iy o
ek s
Ġh uwag
Ġpam ahalaan
Ġkasal uku
Ġw ith
Ġp w
ir i
Ġng ayong
ana l
Ġkun di
Ġt ab
ib o
S A
Ġp ol
Ġin i
1 0
Ġna w
Ġnam ang
ĠCom m
Ġgr upo
w n
Ġnap ak
es to
uk oy
Ġpang una
ub ong
Ġper a
ino y
Ġes p
iy embro
Ġ un
Ġtr ans
Ġin yo
Ġt al
Ġb ab
er e
us in
Ġpat i
is e
MAN ILA
N P
Ġ ut
ret ary
Ġb al
um an
Ġ id
ung o
ĠPag k
ĠA g
a al
ĠA k
Ġmak ita
ĠR o
Ġcom p
al th
Ġpinakam ahusay
Ġto to
Ġno on
in ang
p ang
ung sod
ĠA c
Ġl aro
Ġd es
Ġs ur
Ġm iyembro
Ġpro p
ĠC o
Ġg u
ed e
ins an
as ama
Ġk r
Ġs ol
pl y
ĠS up
qu e
Ġl unas
Ġkat otohanan
Ġmad aling
Ġar t
I s
Ġpag iging
est iga
Ġg aya
Ġgag awin
u al
us tr
Ġnak ita
Ġneg os
Ġman ok
Ġ- -
Ġ ah
Ġ1 2
ĠAqu ino
ut ing
ĠM al
Ġ ulo
ro ong
an ce
Ġ us
Ġag ad
Ġsa pag
Ġb il
on om
ul ungan
imb awa
Ġpina ka
at h
or y
Ġp ah
Ġginaga mit
av e
Ġb o
ing a
n e
Ġ1 5
M ay
Ġk uw
Ġpro t
ar alan
tr a
m inistr
emb re
at ol
Ġmak ipag
Ġik a
Ġk apatid
Ġpanguna hing
ar k
ĠN ews
u ang
ĠP as
ent a
Ġh alaga
una wa
ap an
Ġas awa
ic h
Ġkina ka
Ġl inggo
ĠD r
Ġnat ing
Ġpagkakata on
angyar ihan
ina k
l ay
Ġnag d
l an
H uwag
Ġd ep
Ġ apat
on e
al awang
l ing
s an
O N
Ġm apag
p a
Ġnagb ibigay
or te
un og
ĠR od
b a
over n
p er
Ġsar iling
ek syon
Ġs ena
ĠD is
Ġdum ating
Ġw ill
y ado
Ġmak apag
ud y
ans ang
Ġhal os
al abas
ar aw
Ġp re
, ,
g et
Ġmam am
ent er
Ġum aga
Ġd ak
Ġlab as
en e
f orm
alag ay
ĠB ag
Ġsp ot
I n
Ġpareh ong
Ġm ot
ek to
Ġpags us
Ġbat ang
r as
iss ion
Ġpagt at
Ġnat urang
am o
Ġd agdag
Ġw ork
Ġsinas abi
s ite
Ġdal awa
Ġed ad
ĠA d
ĠK ah
Ġbit amina
Ġmag andang
ru it
ĠG en
as ak
Ġs y
Ġm una
et al
Ġk ita
ĠIn ter
anda an
Ġsum us
t ong
g y
M ga
ĠR eg
iv er
o ol
Ġis ip
el o
Ġmag h
anga ilangan
ta o
Ġc an
Ġd ro
ĠT a
id er
ak an
anas an
s on
c an
ĠAn d
ĠD av
Ġepek to
Ġlib re
A L
Ġm angy
ĠU S
N g
lo ad
Ġdr ug
co unt
Ġd a
y u
ol d
i ar
on do
k as
aya an
Ġk ad
Ġs ino
ib ang
angg it
ro m
ata an
Ġt el
s h
ĠO ff
Ġ una
Ġin ih
Ġs ya
v a
p r
Ġl ungsod
o use
Ġal isin
_ _
I D
Ġsa g
ib an
Ġm uli
t y
w al
di d
Ġr ito
ĠN o
ĠE d
Ġkan iya
ĠN ak
l ad
Ġn ina
Ġ1 8
ic s
el ik
Ġm ed
ĠP r
uw i
Ġ Ġ
Ġg in
Ġfung us
Ġsan hi
ip e
Ġp ala
m b
ĠCh ina
Ġ ,
Ġm od
ut ion
Ġpagpap alaki
Ġm er
Ġ qu
Ġsa sak
y s
Ġag ency
b ing
ĠS h
or ta
Ġnak al
Ġl ag
y ung
ĠF ilipino
Ġsus unod
ĠH e
os pit
un i
N a
Ġit in
Ġt alagang
ĠD e
Ġb ut
Ġs ite
Ġdi rek
Ġre med
k et
it ion
Ġt it
ur al
Ġ ig
ospit al
ĠBibl ia
iar dia
Ġnangy ari
Ġl ok
Ġpat ay
ip as
Ġbum ili
id o
il o
Ġs ec
Ġkar apat
1 2
Ġl ub
Ġl it
Ġmal apit
Ġm alaman
angg ol
Ġres ulta
om e
Ġrec ruit
Ġon line
Ġkon t
ing i
Ġpam p
ĠK ap
ib ong
Ġag aw
S i
Ġkat ut
ĠNg unit
Ġka ilangang
p uan
I T
Ġlang it
Ġnak araang
ens ya
Ġmag l
un s
ĠC ar
s tr
Ġy un
ĠQ ue
ĠI t
iv ers
Ġis ina
Ġmag ulang
re e
angyar ihang
ĠS en
Ġpagp apat
Ġpers onal
ump ay
ĠSec retary
ĠE x
Ġweb site
Ġh air
l d
Ġsa pat
ĠM art
Ġb y
amant ala
Ġme dia
A R
r ang
ol og
Ġat in
lo w
ĠP ara
ĠD ahil
Ġs ing
Ġh ang
ana o
Ġm awalan
irit u
Ġ u
Ġd aan
u ga
inig ay
ic t
Ġm uling
Ġ Â
c os
ĠRod r
Ġ1 1
Ġip inag
oc ial
alat aya
as al
ra el
am dam
iw a
ĠC risto
Ġdro ga
Ġg ayon
Ġrecruit ment
Ġd ugo
ot e
int ay
ĠS p
Ġmakak uha
Ġ em
ĠC or
er b
Ġ3 0
Ġgan itong
ĠN ang
Ġs ist
ĠS al
ib il
Ġb aka
A n
Ġ ama
ina m
agdag ang
ĠP inoy
Ġn yo
Ġpam b
Ġn et
ol o
ch ool
ro up
c ess
tib ong
Ġs iy
overn ment
Ġtum ut
is ang
Ġnags is
c l
ĠIs rael
Ġtag a
d aman
or o
ir ang
ic ation
alam at
Ġib ig
ĠG r
Ġpos t
oses o
Ġe v
Ġsig ur
ap angyarihang
ugna yan
ĠPangino ong
A G
it s
Ġin d
st em
Ġan i
Ġb iya
Ġl ayun
Ġmay roong
h el
l and
Ġb es
ĠP NP
ĠAn t
Ġyo u
uk od
Ġkar agdagang
uk a
Ġpagh ah
A T
Ġnak ik
ĠM o
ah ulugan
ik ang
Ġp e
Ġna d
Ġpina p
Ġkab aba
is an
ur an
Ġp h
Ġkap angyarihan
Ġc ream
Ġk ur
iga s
Ġf ac
Ġcon t
Ġip ag
una yan
Ġmag d
Ġs und
ĠP an
Ġnam ing
N ak
aram ing
Ġna i
uw al
Ġt ang
ag ang
ens iya
Ġka ugnay
il os
imp le
st it
ana t
Ġkar an
u di
in it
at er
it na
Ġan iya
z a
ĠA mer
Ġs ob
Ġt ime
Ġpang ang
n et
Ġt iyak
ap a
Ġp elik
Ġ yan
ĠIs ang
uk ulang
3 0
ĠF ran
Ġs and
ĠMa aari
Ġmagk ak
Ġkaram ihan
Ġc l
ol oh
Ġpagl ago
c es
Ġgum agamit
w ork
Ġt erm
ent s
Ġb r
Ġbes es
m ing
1 1
ap ang
at ed
o ok
iw alay
Ġimb estiga
Ġil an
uk sa
Ġt est
ĠS am
T anong
Ġka ilan
Ġac count
e ed
ag at
Ġad ministr
v est
Ġb re
ar in
Ġl ist
n er
ali an
Ġhal ip
p os
Ġkatut ubong
ro yo
Ġal as
Ġt ah
y ente
Ġh ave
ĠE l
ĠH uwag
Ġum a
ĠQue zon
Ġm on
i or
iw as
Ġpagk aka
ĠC O
Ġp et
ĠRodr igo
up a
p ro
Ġsh ow
Ġd el
Ġdal iri
Ġmap up
uh ang
ol a
ak e
Ġkababa ihan
Ġpana nal
Ġpal ig
Ġm ilit
Ġkasal anan
ah a
Ġsena dor
as h
ak bang
an ib
Ġprogr ama
Ġpagk a
ĠT he
s c
ik e
Ġ &
Ġkump anya
ĠOff ice
Ġk w
Ġis in
Ġt ayong
ĠA ko
Ġth is
unt i
u ot
p as
orm al
Ġtab let
Ġt iyan
al aw
Ġkinaka ilangan
tor idad
Ġmah al
Ġre h
ec h
d ang
at id
Ġm alakas
1 7
t an
in om
Ġ1 4
Ġsa s
Ġ #
Ġk ilala
ind anao
Ġh inah
t ing
Ġpakik ipag
E A
ub ok
ĠO r
Ġoff ic
ĠC on
ih im
od e
Ġs imula
ay at
Ġsasak yan
il d
am at
Ġt ama
us a
Ġkat ulad
Ġan im
Ġp is
ik asyon
ab ilang
Ġk ulay
B A
u y
Ġga ano
h h
D ahil
ĠL e
Ġ1 3
Ġnagt at
D A
a il
Ġpagb ub
, âĢĿ
ĠD O
rec tor
Ġkasaluku yang
ĠK at
er r
ĠMak apangyarihang
ad e
Ġgam utin
al iwanag
ĠP ar
Ġs imb
Ġnegos yo
Ġm awala
y adong
m s
N A
ĠB arangay
Ġmak a
mp alataya
Ġd ay
at or
ĠA y
un in
is ita
Ġnagk aroon
Is ang
on o
us ugan
Ġkas ong
it or
Ġt anong
ĠS i
am in
Ġm ore
un c
s i
ar il
Ġh ari
Ġm angg
Ġga nap
5 0
Ġan ong
Ġc ar
n y
ĠF or
Ġpagbab ago
Ġl e
ĠMay or
u el
Ġib inigay
Ġina as
ha ir
Ġ1 6
Ġor gan
Ġpro y
ĠC ol
j ect
ta as
ev el
ut uring
v ice
Ġnak ap
Ġko mp
m e
Ġum anong
as yong
Ġko m
Ġsist ema
Ġkam ing
Ġw as
uw id
Ġkab ila
ak bo
ĠPa ano
ĠM etro
. ,
Ġs e
Ġpag mam
at es
Ġmab uti
Ġoper asyon
ih irap
eg al
Ġlim ang
Ġd etal
Ġ ent
ex t
ut h
Ġit log
ap ply
alo ob
ĠG u
an i
Ġb arangay
aram i
ĠB ar
o ul
il id
Ġt anggap
ĠB akit
ĠW alang
m ang
Ġsumus unod
iw asan
o o
al ig
usap an
Ġre k
F W
p h
Ġhal imbawa
Ġs tr
ah arap
Ġpan l
Ġo ur
Ġpagga wa
T he
Ġf ol
s iyon
n ila
Ġnak ikita
ĠS er
Ġbum aba
us s
unt is
Ġp un
Ġpan uk
p ak
Ġt amang
Ġtoto o
Ġma ayos
Ġg aling
Ġtinat awag
Ġlok al
Ġkum uha
Ġres p
Ġb ibig
ĠSena do
b ayan
nat ional
ah i
ĠV ill
ĠAr royo
as on
Ġpulis ya
ing s
ĠN iya
k ul
Ġka ukulang
Ġc or
d uc
ĠT ag
ata uhan
Ġ2 4
yo nal
am atay
I S
g in
r ato
ĠM e
Ġm alaki
ic a
Ġt apos
ĠK ong
aling in
m y
en yo
Ġal l
ĠM at
Ġmagb igay
Ġt ut
ut e
y embre
ak syon
Ġ ug
Ġc r
is ing
ĠK apag
Ġpagd ating
Ġmat er
Ġg itna
ĠS ant
Ġlik od
ust ice
Ġkak ay
Ġlibre ng
ĠK as
Ġmad alas
emb er
m al
Ġ *
Ġpalig id
Ġy ear
Ġ ih
Ġhin ih
ina y
Ġsa mp
M a
ik ular
Ġnak as
hon e
is k
Ġd ing
Ġb ro
Ġpam um
ĠComm ission
Ġkaran iwang
ug on
Ġp ant
a u
tr ib
Ġis yu
t s
Ġt ina
Ġas s
Ġmapup uksa
ĠR os
I I
ĠR ob
Ġd em
te e
Ġp uno
ĠL im
Ġaw toridad
Ġmil yon
o ot
Ġre port
P ero
Ġpubl iko
Ġh igh
ab u
ul in
g o
Ġdok tor
Ġs it
ri end
b er
w e
Ġlayun in
Ġposible ng
Ġl ip
un lad
Ġc usto
1 5
ag ot
Ġmag anda
Ġkab ataan
ĠB el
Ġpag alingin
ĠJ o
re en
ĠL u
ĠP O
Ġga st
- -
Ġw ar
ĠEsp iritu
AN G
ug h
ah alaga
Ġt ek
Ġl aw
ed eng
any os
Ġmak ap
na g
ir al
o u
Ġbay ad
ĠN ap
Ġko mun
uh ok
im ulan
oloh iya
Ġmak ikita
Ġk las
Ġimbestiga syon
mit tee
Ġb us
1 6
ĠS ab
w are
Ġp ondo
Ġdes isyon
Ġpagkak aroon
Ġb int
k an
to mas
Ġf rom
Ġm y
Ġ1 7
do wn
u in
Ġlum abas
C P
ĠM ari
r abaho
ur uan
k od
Ġtum at
Ġest udy
Ġh apon
ĠB as
Ġpap el
Ġt awag
Ġmamam ayan
ap i
ad or
Ġl alak
Ġsin us
Ġrel ih
Ġsa h
E R
Ġh akbang
Ġmat atag
Ġnagk ak
Ġn iyo
Ġ201 8
r al
l or
al aro
ina bang
al awa
od er
Ġak on
Ġkab u
Ġkap wa
Ġkay ong
Ġp ig
Ġay aw
ĠH ouse
is ion
Ġnak ab
ĠT um
ĠA yon
ut ang
w er
ot to
S amantala
Ġnan iniwala
m at
Ġsapag ka
h ong
Ġgum amit
ĠG o
m in
ĠKah it
U R
ĠT h
ind ing
Ġpart ikular
Ġpamam araan
Ġs ug
Ġmah irap
ip at
Ġsy stem
ung a
al ong
ir us
Ġt uw
Ġm ismo
il im
v in
i er
lam o
Ġpum unta
ĠK rist
ĠE r
Ġpina t
eh o
os s
f er
uc k
Ġtag apag
Ġit uring
r am
ĠT V
Ġs ik
Ġd agdagan
Ġdak ong
ĠW ala
Ġnag m
or n
Ġf orm
Ġs ocial
ĠMay nila
N o
or ya
Ġmal inaw
ĠK am
ina r
Ġlal ong
ĠE st
Ġs el
as s
Ġs imple
le c
Ġkr im
Ġnak apag
Ġpl ano
Ġpelik ula
ĠO FW
Ġm insan
w ay
Ġl in
ĠM ala
Ġnam atay
w it
a ano
Ġlist ahan
Ġkon s
uto k
1 3
il y
Ġc ell
Ġ $
Ġg overnment
is ens
le g
Ġl akas
ar m
ĠR es
Ġkar anasan
Ġm is
Ġmat at
inal a
Ġmah igit
ĠCh ief
agal og
ah id
ĠR om
et e
or ld
P ara
Ġo il
ĠJ r
n ess
Ġo b
ok es
Ġn ung
âĢ Ķ
un es
ip ili
ĠA p
Ġs eg
eb r
Ġres idente
Ġopis ina
ĠUn ivers
Ġnag iging
unawa an
Ġ2 5
Ġc ol
ĠSena te
Ġb angk
Ġum i
Ġmak ab
or ity
aw ay
Ġk ol
ĠI p
F P
Ġp unt
1 8
1 4
Ġtin ut
bay ad
re d
les ia
aka ilan
Ġant as
ip in
ĠAs s
uk as
Ġsin tomas
I p
ĠM indanao
Ġpag g
ĠB iy
u yo
Ġb iy
N ang
Ġp op
Ġb l
ĠL ahat
Ġ ide
Ġtek n
A l
et er
Ġim pl
Ġp alag
Ġp ors
V ID
Ġo k
Ġpr oseso
Ġna il
p or
Ġnangang ahulugan
it i
Ġproy ekto
ir st
o e
Ġ X
ina b
ain ing
Ġk alak
av el
os o
Ġmag ag
Ġin t
op le
Ġg id
m m
Ġka alaman
Ġma i
ĠNg ayon
âĢ Ĥ
o us
ĠJ uan
Ġsal itang
Ġsub alit
ĠT s
emp re
Ġk inal
Ġdetal ye
a z
h iya
uk ol
ĠIn d
Ġm us
Ġd ami
Ġw ikang
Ġkal usugan
Ġmah alaga
ik sik
ĠG iardia
oc al
ing an
ar ito
oder il
an k
uk l
Ġ ulit
Ġap p
Ġpat ak
Ġestudy ante
und er
Ġlalak e
uto l
er at
ir m
Ġpags is
angg i
lo ob
k aw
ĠB en
il in
Ġpa aralan
ak t
ĠS out
Ġt aba
und in
Ġt ingin
ag ong
z oderil
ita as
Ġmas as
ir ahan
o ob
ip s
ĠS um
el d
ĠH air
ĠR am
Ġt ila
c ial
el y
Ġk alag
am itan
um ento
Ġk ada
ĠJ ose
Ġsob rang
b ong
Ġremed yo
ec ut
amp a
unt ing
R T
ud a
Ġbat ay
ga wa
it ed
ĠP art
Ġta uhan
ant s
ow n
Ġprob ins
c le
ĠV al
Ġ ung
Ġ1 00
Ġmat agal
ab or
ĠGen eral
Ġmagk ano
ag ad
el ec
Ġh and
Ġgina mit
uk uha
oto o
Ġs chool
end a
Ġt reat
Ġd ati
Ġ201 9
ad y
Ġ :
Ġs anggol
ust ong
ĠJ er
ĠÂ »
ek l
oc k
Ġins idente
at long
Ġkarapat an
Ġpum asok
Ġb ur
Ġdr iver
ays ayan
ut uro
Ġpang angailangan
uk at
eb ook
C O
oul d
Ġpag taas
ĠAc t
ab asa
Ġh uli
b ig
ĠR e
Ġl aki
ĠN ew
Ġlit rato
Ġd arating
ec ial
Ġmater yal
ĠT ao
eks to
Ġl and
Ġsag ot
Ġ emp
it iko
ub uo
Ġsig uro
y at
ĠH al
Ġt er
Ġmas yadong
al ala
Ġmags as
ĠL unes
Ġma il
ĠS y
Ġg uro
ĠDav ao
Ġb alita
Ġgum agawa
Ġpagh atol
Ġ ari
ĠB u
ĠM akat
Ġa ir
hair man
Ġh ih
E S
ĠJ ustice
Ġkam p
Ġor der
ur ity
M as
ub re
Ġmag pap
Ġel ection
igt asan
s k
ip on
r ip
Ġpagl il
Ġre b
Ġpubl ic
Ġpagb ibigay
Ġl aman
n ing
ĠL ib
h at
ĠT agalog
ar yo
Ġpags ubok
Ġta x
Ġmab ig
ĠC l
Ġso ft
Ġp ad
ub uhay
Ġch ief
es e
Ġ201 6
Ġtuw ing
Ġib in
Ġnat ut
Ġbig yan
Ġh im
tion s
ud get
Ġpana y
Ġg ulang
ubl ic
ik an
ĠP at
ĠMar cos
Ġpang y
v ers
Ġrel asyon
Ġinter es
ab lo
ĠAk ing
w agan
Ġsangk atauhan
Ġkal idad
ilip at
A S
Ġind ustr
Ġb ill
Ġkah arian
K aya
ĠG am
to p
Ġgast os
K a
Ġpina l
ern es
ta in
i as
Ġ ul
Ġtr ad
ĠC enter
Ġmal awak
Ġna pap
ill a
ĠL ac
us ang
can ang
Ġ5 0
C C
B I
Ġlal aw
Ġh awak
id a
t at
Ġg alit
us h
Ġmakat ulong
Ġc as
ines e
ĠI sa
Ġbuk as
Ġn um
en o
ĠG usto
ins ala
ĠS in
Ġib abaw
r il
Ġu od
ant ay
Ġlup ain
ĠB e
Ġprop es
Ġf l
Ġ 0
ut usan
Ġpw ede
ĠMala canang
abag ong
oh n
ab uti
ik ap
Ġd ad
a as
Ġk aka
ĠF ac
ĠA m
Ġ ospital
angg al
Ġsimb ahan
Ġmed yo
ib ay
ĠCO VID
Ġmas aya
ĠHe alth
as o
i isip
Ġpang ulo
Ġsol usyon
ig pit
ĠK al
Ġmil yong
ut y
ayo p
ent al
ur t
Ġkum ain
pl oy
Ġkat ang
Ġsur g
Ġpagt it
n ang
Ġte am
ĠR uss
Ġm ens
inas yon
ĠP am
ĠI ng
ĠS at
E N
it im
Ġl ider
Ġbum alik
ĠS e
ub o
Ġmangg agawa
Ġant i
Ġm amb
Ġnat ural
ing at
Ġpos isyon
ast ic
amp ok
Ġmilit ar
Ġnat ional
ĠI g
es a
Ġlalaw igan
uw eb
A P
ig d
c ed
Ġs m
No ong
Ġsup orta
Ġt emp
Ġnagsas alita
c on
Ġ itaas
akat ulong
u ya
indi han
ĠP ac
B S
Ġek zoderil
Ġnet work
ak ad
Ġs et
c is
b ab
Ġma ip
tib o
ro ad
las s
Ġt ingnan
at ayan
ĠD apat
ĠE uro
op ment
ĠBiy ernes
Ġ2 2
Ġnap ag
? ?
ema il
es yal
I t
Ġbint i
ĠPresident ial
Ġkon tra
ak dang
Ġpas ah
w ing
Ġh el
Ġnak aka
Ġpl ay
ot el
olog y
ab ayan
W A
D O
M at
Ġmad ali
Ġal in
ĠW e
Ġnak uha
Ġpang kal
Ġc he
Ġtr avel
ter n
ar ant
ut os
Ġd iy
lim ming
al apit
er to
Ġkal oob
F A
Ġh uk
Ġsurg ery
ak ay
nat ili
Ġh on
in st
Ġib aba
v ey
ĠSena dor
ĠM ac
Ġper mit
r at
ĠG amit
Ġe ng
Ġb en
Ġm en
onom iya
Ġmagkak aroon
ĠMart es
ĠB uhok
ure au
ir amdam
eb u
ĠF er
res o
Ġpab or
Ġb log
em on
Ġh ayop
at awang
Ġkag amitan
Ġsah od
ort h
I sa
Ġhe hehe
Ġkay ang
Ġga s
Ġl ead
A no
Ġk aw
Ġex p
Ġmag bayad
ĠPagk atapos
us ulat
im ulang
Ġsapag kat
ĠJ os
v en
Ġd amit
ĠUnivers ity
ĠB ureau
Ġh il
2 4
Ġad d
Ġsit w
ant eng
t on
Ġmak uha
ĠC our
ĠCh inese
Ġtang ing
Ġmad agdagan
Ġpres ident
ub os
ĠB l
Ġkan did
ir ma
ĠL inggo
Ġm anag
Ġd ata
ĠO k
ĠQ u
Ġs is
m ga
Ġco un
ĠS o
Ġap pl
ens e
p ar
Ġsoft ware
C B
ep ono
Ġgan ito
Ġt s
k op
apag ka
t ang
Ġt eksto
Ġg en
Ġnab anggit
Ġkasaluku yan
oc i
Ġpina n
iy ahan
Ġrelih iyon
ur g
Ġc ard
as ang
Ġcon s
Ġhang in
Ġcom m
Ġh anay
ic es
Ġiy an
ĠTr ans
Ġt ip
ib ers
Ġkuw ento
Ġre p
ok o
Ġt ur
Ã ¡
K apag
l ob
Ġprogr am
ĠTa iwan
ek ta
ĠS alita
Ġkas aysayan
Ġnum ero
i x
ĠM ad
d r
Ġf re
Ġ201 7
ut as
to k
if e
ah alagang
Ġgum ag
Ġtah anan
p ers
Ġs ent
ah ok
ort ahan
amb a
Ġw r
Ġfac ial
Ġbina b
Ġ usap
ĠB anal
" .
Ġt ar
ep t
Ġthe ir
i ro
ĠT ingnan
Ġc ent
iy er
uw ang
an es
Ġkon tr
Ġlub os
IN G
Ġpig ment
ult ura
ac y
Ġman l
Ġfor um
Ġklas e
ĠBibl iya
Ġnin yong
ĠT e
ĠJ ohn
Ġs ir
ar to
dic al
c i
pl ay
u on
Ġch ar
Ġen er
ĠB o
alig iran
a aring
Ġnap aka
Ġpagsus uri
Ġg ano
iw at
ĠL a
iz al
ĠA nak
ĠA ir
* *
Ġp olice
port s
a a
Ġart ik
Ġemp le
Ġum abot
ĠM ayo
Ġh ost
Ġma ik
ĠR ey
Ġg roup
down load
Ġ indi
Ġkon d
anap in
c ent
uweb es
leg al
ĠB al
ment s
ru z
Ġs ul
ĠS ub
hel yo
Ġt ap
Ġmer on
Ġkal igtasan
Ġpag m
Ġmat ut
igd ig
Ġmens ahe
K in
Ġthe y
ĠK ore
ĠB a
Ġpin uno
Ġtr aining
im ik
l in
Ġcusto mer
Ġg o
Ġmab aba
is it
Ġl alaking
ug to
ĠCour t
Ġpagsas anay
Ġo ver
Ġna it
ah ag
Ġpaghah anda
ul asyon
l aw
ab og
Ġpangy ayari
ĠI II
Ġsigur ad
T V
ay undin
et s
W e
aal ok
v el
ĠEn ero
ingg il
Ġit inat
Ġin f
p y
Ġad v
Ġmag agamit
tr ict
anat ili
cl ick
aram daman
Ġr ad
ĠInter national
Ġim port
ĠAl am
Ġik alawang
Ġpasah ero
Ġan y
ĠKam ara
od y
ĠM iyer
ĠJ apan
Ġ ukol
ĠE str
th er
ibil idad
iz e
Ġresp ons
Ġprobins ya
__ __
P O
2 2
ĠU pang
ĠH uwebes
Ġpin ang
if ic
Ġhe alth
Ġpl an
to l
Ġnak ar
Ġnagpap akita
ĠS ol
le x
ak er
Ġ4 0
a use
Ġh as
ab atas
Ġsitw asyon
op e
p aman
ĠP ablo
Ġh angga
Ġpanana mpalataya
ar esto
Ġpanay am
Ġ2 3
Ġd agat
Ġpinakam alaking
vest ig
f or
Ġoffic ial
iga w
Ġg ustong
Ġtak ot
A M
Ġkat ao
Ġpuw esto
ĠDi rector
B ukod
Ġs il
i um
ab ilis
E UR
ĠEstr ada
na s
ig r
at ch
am ot
Ġmat inding
on es
Ġrec ipe
Ġsus p
h ih
int indihan
ĠP e
ĠSup re
umb er
ĠL ag
Ġlim it
L E
Ġnangy ayari
Ġpana hong
Ġon e
ung in
ungk ol
Ġmas ama
Ġkam atayan
ĠSat anas
2 5
al e
n el
c el
ĠBag ong
Ġkakay ahan
Ġmin uto
Ġb ack
ĠC ebu
ak da
Ġbar il
ĠH esus
Ġ email
Ġna lang
ayun man
Ġh anda
Ġesp esyal
Ġkina b
Ġnagp apat
Ġab o
Ġk ot
Ġterm ino
ĠSab ado
ĠLac son
Ġf ee
ĠS ur
lo ck
Ġtel epono
Ġb udget
Ġma iwasan
re do
Ġrec ord
alak ay
Ġpart y
Ġ2 1
Ġgina wang
Ġlag ing
W ala
Ġp up
Ġr ate
el f
io us
Ġp and
d ate
Ġpagk ab
tr abaho
ro b
is i
Ã ±
Ġsa ka
ĠFac ebook
ight s
il s
Ġh its
Ġkalag ayan
Ġpal iwanag
Ġbaw al
ayun paman
Ġemple yado
na r
l i
ear ch
Ġs ex
ĠS inabi
Ġpina s
alag ahan
ak s
udi o
Ġis da
Ġpak iramdam
irap an
Ġum alis
ĠL aw
ig ma
ĠK ab
Ġpl astic
inaw ag
I A
up orta
Ġma it
d ay
ist ro
il ity
ĠC ruz
Ġn ormal
p ing
ig uro
Ġl ar
ant ayan
Ġmah alagang
u yan
Ġben ep
b ot
Ġsund alo
Ġfol k
ĠDav id
Ġkap aligiran
Ġl as
Ġs limming
Ġpres s
Ġb inig
Ġbuk od
Ġbuw ang
Ġf il
as alamat
h al
I na
ul uhan
Ġre al
ili it
Ġt im
Ġb ansang
as ya
res ista
Ġkatang ian
Ġnaw ala
Ġlin ya
S E
ĠFran cis
Ġp ay
ĠL ot
Ġpang k
er c
end e
ano od
ech n
Ġnags imula
Ġpagk uha
al es
Ġak lat
it ing
Ġt ind
T O
ĠG awa
Ġf e
Ġpam ahid
uk asyon
ik lo
Ġac t
Ġb ala
Ġpan iniwala
ungk ot
ĠP al
tr y
ĠK risto
Ġam o
Ġnagb igay
Ġab out
ĠK ar
ĠA ma
ĠĠ ĠĠ
Ġma is
j a
Ġsh abu
Ġd at
Ġmal i
Ġst at
Ġmat ag
ĠKong reso
Ġmap ap
r ap
Ġh is
2 1
Ġmak ik
Ġd ec
Ġtreat ment
Ġkin uha
ay ad
Ġmatatag puan
4 4
ĠE m
Ġl igtas
ia o
l ist
Ġmar ket
Ġpr ib
Ġnaga wa
alak bay
Ġ >
ĠI na
m on
Ġtumut ulong
ĠS ing
Ġp int
er g
Ġnas awi
Ġkailan man
di r
h ah
ent ong
Ġdis k
enc ies
ist ang
ak ot
em at
ĠIng les
ĠA BS
Ġpro ject
Ġnagl alaman
Ġh inggil
Ġide ya
Ġka agad
Ġpah ina
lang in
e ep
ĠG roup
Ġ19 9
ĠG ar
Ġpangkal ahat
ĠR ead
Ġkond isyon
inag d
ĠS abi
Ġpanana w
f a
ard s
Ġreg ular
Ġmas amang
Ġpunt os
Ġf ile
Ġf irst
Ġkah ulugan
ĠJ an
ĠD evel
K as
y ag
ay ap
aw ad
ic o
Ġnaga nap
ro p
ab alik
h ip
ang at
Ġsa bay
Ġsinas abing
Ġkap it
Ġpas s
b it
ob ile
Ġmab abang
Ġsum unod
Ġtul oy
Ġbre ast
Ġc ap
Ġkrim en
ag sak
ĠI lo
it ies
u ch
o und
ayag an
ut ong
Ġtekn olohiya
s ada
Ġlab i
Ġsimple ng
aal ala
A Y
ol e
Ġpana lo
Ġbaba eng
Ġmab uting
Ġest ado
ag s
R ead
Ġbas ta
Pag k
ĠâĢ ¦
Ġlab anan
ik ot
po int
un yo
Ġtungk ulin
un ong
it aw
us og
Ġpinag s
ĠBr gy
c er
Ġmag ka
v ent
Ġma ch
Ng ayon
f ter
Ġkong resista
Ġl egal
u a
Ġpro f
Ġmangy ari
ug od
mun ity
Ġb anal
ra ft
Ng unit
ĠAng el
ab ihin
M M
Ġkamp anya
at ive
ĠCom elec
Ġp itong
Ġappl ication
Ġkina k
Ġe ff
Ġkot se
Ġipina p
Ġh alaman
Ġb alik
an iniwala
K ah
eb enta
oby embre
f riend
Ġbas e
ĠB ayan
Ġmap ang
uk san
Ġnang angailangan
re l
Ġgu id
ang e
c he
ĠS A
Ġlip unan
Ġtoto ong
ol usyon
Ġpagl abag
un uan
Ġitin uturing
ul l
Ġ |
ĠL um
ga w
Ġek onomiya
ud e
Ġmal iliit
Ġsur vey
ub ukan
Ġkomun idad
k in
is yong
ĠM ore
Ġdal hin
ecut ive
apat ay
Ġpol it
Ġremed yong
r en
tr ans
Ġrek lamo
Ġ ing
Ġna u
ism ong
ilip inas
y un
et h
p s
2 3
ĠLim a
ipili an
p an
Ġpan ig
Ġab road
r on
s alita
Ġl eh
ĠDis yembre
Ġdok umento
ik ayat
ga do
is asyon
er ation
ĠMakat i
ĠSout h
y cle
Ġs tor
Ġp il
Ġkabu uang
Ġmamb abatas
Ġlab is
ĠV ice
Ġnakal ipas
Ġcomp uter
b all
Ġpat ungo
Ġsam ant
Ġkaloob an
ayap aan
Ġ iya
dib id
at uloy
ĠTs ina
Ġg us
ĠAr aw
in to
ro w
ĠKrist iy
ĠB ilang
ĠM us
iv es
ant ong
ĠK anya
Ġth ere
bang helyo
Ġh ina
as awa
R J
Ġna a
us al
em ento
Ġk alam
Ġreh iyon
os to
s man
ĠC al
il alang
Ġan yo
Ġpas yente
Ġmak as
ul e
Ġnan in
Ġsigurad uhin
k ita
Ġmah abang
T C
S S
at her
CB N
ar te
" ,
ĠMar so
Ġd un
ver t
ens ion
Ġip akita
ala an
N ab
ff air
Ġga wing
Ġin dibid
ĠCh rist
Ġadministr asyon
Ġ2 6
Ġpl ac
er sa
m o
ill anes
trib ution
Ġto ena
asa ad
aw as
ut ulong
ĠI b
Ġpamp ubl
Ġ _
Ġpananal iksik
Ġpas tor
Ġk orte
ĠReg ion
ahat i
Ġil agay
d aan
ig al
ĠPag s
Ġg ilid
unt unin
ĠR izal
und ok
Ġlum ikha
usin ess
ĠI l
Ġn ews
ĠO c
id os
Ġwh o
Ġ2 8
le y
ill ion
S h
ï ¿
uns ad
Ġc hairman
ad os
Ġ unit
Ġh irap
Ġindustr iya
Ġpos it
al arawan
il alim
Ġl ast
n d
Ġl ink
inagd ag
Ġg ood
ĠCom p
Ġil legal
ĠH unyo
ï¿ ½
is tr
er ek
as k
Ġcent ers
Ġhon ey
Ġdis enyo
Ġf ace
on io
ih intay
Ġnaw awala
Ġkur yente
Ġmal ayo
Ġ ana
Ġnat ag
ĠU m
Ġag encies
Ġw in
inst all
ĠM ah
ĠTr illanes
Ġpagd inig
Ġepek tibong
a ff
ga mot
Ġener hiya
Ġsina bing
Ġma aring
Ġhe ad
ĠN ov
ah inga
Ġt ext
Ġl agi
Ġb ot
Ġpagp atay
Ġnil alaman
ĠE lec
Ġed ukasyon
ĠN obyembre
Ġp ong
ĠM ula
una l
ulang an
Ġk awalan
ĠK o
ĠN A
Ġkinal aman
Ġn on
ĠSant os
ĠG ina
ul ak
vestig ation
Ġpang ung
ĠRo que
Ġak tib
b as
Ġt apat
um in
om a
Ġpro duc
fer ence
Ġkal ik
Ġnar ar
Ġb alak
aw asan
Ġpanuk ala
Ġb ec
Ġc al
ec tr
ĠW orld
ug unan
Ġsik at
ĠM anag
Ġdum alo
Ġoper ation
Ġyear s
Ġd am
ĠM or
ic an
ana h
Ġd ina
Ġd uwa
Ġbag yo
Ġleh itim
ue va
ĠMay roon
Ġmags is
ub e
Ġent ry
k ado
ĠDevel opment
t ubre
us ahan
Ġpamb ansang
no w
Ġsangk ap
ĠK om
Ġs ek
p hone
ak uha
? "
rol l
ĠI kaw
ak yat
Ġkat unayan
Ġm and
Ġmot or
Ġis inas
ĠUn idos
Ġkal sada
angk ot
Ġsal amat
b on
ain t
ur idad
Ġma init
Ġe b
Ġnagh ahanap
Ġpang arap
ar do
ffair s
c a
iz ation
Ġnab ubuhay
Ġpe ople
Ġpagmam ahal
ĠC am
R O
Ġ201 0
Ġ2 7
alak ad
ind ol
ĠMari a
ers isyo
Ġip inang
Ġb ers
i ed
Ġinter net
U NA
Ġ â
Ġpagpap al
y n
ĠC usto
Ġpang anib
am ali
Ġp ans
Ġare a
c ia
Ġsum as
os is
Ġbag a
h am
p ay
am ahan
ĠP ana
ĠP ed
um ite
? âĢĿ
ut a
ak ain
ol es
int ulot
d ala
ĠC as
Ġpagh ahanap
ir l
Ġb ilis
Ġpatak aran
Ġmal inis
Ġp ansin
m um
Ġh y
ĠAl l
Ġnam am
Ġtat lo
Ġmas s
Ġinaas ahan
mb ud
ig ur
ĠLu zon
ahat id
ĠPan elo
Ġv s
ĠB atang
Ġek s
Ġkont rol
Ġl a
ĠB inay
okes man
ays ay
ck les
Ġpagp ipilian
ĠA FP
mbud sman
un sod
Ġn umber
ĠAmer ika
ekt ado
Ġbig la
Ġt ampok
uto m
le to
or a
i ago
ig ilan
Ġd ala
Ġnat it
Ġin it
ekl ara
i in
ur s
Ġka ugnayan
ĠR ec
ump irma
na is
ĠR ev
Ġip at
ens yon
Ġbu to
ĠEst ados
ana yan
Ġk or
ĠR ed
ĠP C
ang an
Ġpagkaka iba
. )
ĠDis trict
Ġpan in
uh unan
Ġm alam
Ġbig lang
y as
Ġbat o
Ġdiy eta
ĠIg lesia
tim e
is ay
Ġy ugto
Ġpagbub untis
us ta
og le
Ġap oy
Ġt i
Ġkandid ato
il on
Ġbuw is
kul es
Ġmap a
Ġprib adong
Ma aari
Ġl isens
ĠO mbudsman
ebr ero
Ġh ap
Ġlehitim ong
Ġcom mittee
Ġsa id
Ġl ocal
Ġp ir
isip an
m ag
Ġk inat
Ġbit uka
Ġkab abayan
Ġkw ento
Ġi f
Ġang kop
ĠAb ril
is y
Ġkalik asan
Ġtanggap in
ĠC ast
Ġpo wer
E D
Ġp alat
d y
ĠP et
Ġg agamit
ong ress
en n
Ġl iwanag
uga s
Ġat t
Ġk awan
P D
ĠRo x
S iya
Ġnagb ab
Ġbil yon
Ġ under
Ġb igas
re g
Ġelection s
aw id
t il
Ġpamam ahala
reat ive
Ġtrans port
ĠC ay
pe to
ĠKa ilangan
ĠM ab
Ġg iardia
Ġem ploy
ih inal
Ġd own
Ġmal iban
!! !
ĠM araming
Ġit s
Ġinaas ahang
Ġpanuk alang
Ġv irus
Ġmon th
l ib
Ġt an
Ġtum ulong
h indi
ĠP oe
Ġc are
Ġkah oy
Ġgan un
Ġc am
Ġre t
Ġbenep isyo
ĠAt ty
Ġah ensiya
y r
Ġtag al
A r
Ġpampubl ikong
ĠOk tubre
ĠS and
B ilang
Ġth em
I d
Ġto ol
Ġbab aba
Ġfre ckles
dir iwang
ĠMiyer kules
Ġnagtat rabaho
ĠS et
eh iyo
Ġto p
Ġhih igit
uc ation
S O
Ġc ase
ust uhan
Ġsec urity
Ġd iyan
Ġnak ah
Ġser vice
k e
n ey
Ġd ulo
Ġmah ihirap
und uan
Ġb unga
Ġtanggap an
ĠN G
ug in
Ġhinah arap
uri in
Ġut os
iwat ig
Ġmangy ayari
ĠNo ong
ĠPart y
Ġhits ura
ĠV ic
Ġit ina
Ġ +
ent eng
ĠRob redo
r ont
2 6
anah unan
U na
al s
erat ura
4 5
ĠP ina
ah on
Ġn e
ĠKristiy ano
Ġdr y
Ġpagkak as
U pang
ĠAr t
Ġt inig
I R
ata o
ir c
Ġs ch
Ġnag mam
Ġkas unod
ul es
ĠVill ar
Ġindibid wal
Ġmagb ibigay
ul yo
Ġj ust
ak ip
ĠP l
Ġnak akat
Ġs w
Ġd alaga
ip is
Ġh ah
Ġh en
ĠPO EA
Ġya on
Ġl ing
Ġtag umpay
ibig yan
Ġsup pl
f ul
Ġb oy
b igay
Ġsand aling
ors iklo
3 9
ana w
Ġmak akatulong
uth ority
am on
ĠM on
imb estiga
Ġ201 5
pers on
p is
Ġ alak
ili in
in ong
em ang
Ġin c
ab ol
et y
Ġper pek
ir d
ug is
P aano
Ġpr ins
ul uwa
os ible
Ġel ectr
Ġ ec
Ġmah igpit
en z
ur es
Ġgus ali
ĠW ill
ĠB alita
ap ekto
k ak
ĠAg osto
) ;
amb o
ga d
Ġd inala
ĠPres idente
ĠB it
ungk ahi
Ġpw edeng
K abilang
Ġm ust
P S
atak bo
Ġlum ang
alit ang
Ġpors iy
Ġp insala
Ġt inawag
ro und
Ġhum ingi
und an
Ġs he
P ang
er na
Ġm alamang
Ġpropes yonal
d an
ow er
Ġn iy
ĠP D
Ġd ako
Ġseg uridad
r ub
res ent
uc tion
Ġc enter
Ġg atas
ĠS ta
res t
qu iao
Ġ end
Ġsar ap
unc il
Ġdi rector
Ġh er
Ġinil abas
Ġc le
Ġh otel
Ġma unawaan
ĠY ou
Ġsangk ot
Ġc ode
ap o
Ġl ap
Ġka utusan
k s
Ġmuk hang
g en
am ay
e as
Ġspot s
W alang
ĠRox as
una han
Ġpagb ili
Ġhal alan
Ġmal alaking
4 0
Ġpalag ing
ab oy
Ġnas usulat
ĠP ebrero
Ġb awa
Ġmach ine
ĠCom mittee
ĠA ffairs
Ġpet sa
Ġ19 8
Ġut ak
T uruan
ĠP alas
Ġlib ro
Ġnakat ira
ap asok
ik it
f e
Ġp alak
Ġnang ung
Ġaktib idad
2 7
et ano
Ġpagk amatay
Â ¬
Ġl indol
and er
ur r
ion s
ver y
her e
Ġ2 9
Ġk g
ep e
at in
ak al
Ġst and
Ġd id
ak alawa
an ta
ĠH igh
Ġbum uo
ĠD o
Ġmagsas aka
2 00
I C
An iya
Ġb undok
ĠT im
Ġser ye
k ing
ĠUn ited
ĠT in
Ġsamant alang
Ġnar aramdaman
kal de
Ġim ahe
Ġap l
Ġit im
T in
Ġcon c
r im
l ak
2 9
ĠAnt onio
pl ano
mal iban
Ġd ulot
ern ong
Ġid in
el s
Ġ201 3
Ġnar inig
Ġp uk
O R
ĠC av
Ġnegos y
Ġp ind
Ġplac ement
ep h
Ġpagt anggap
Ġkak ulangan
Ġmer kado
Ġkil om
to t
Ġpang h
z e
aw al
Ġmag agawa
Ġkil alang
Ġre qu
Ġbangk ay
Ġna nal
ĠPac quiao
Ġche ck
Ġl eg
UNA WA
anap an
Ġbinig yan
Ġis s
2 8
ĠC ent
Ġk ultura
na m
ĠPalas yo
Ġnagsas abi
ĠN av
ĠS ila
nat iling
Ġ6 0
p al
l ag
ĠH ulyo
ĠMar k
Ġib igay
ali it
Ġadd ress
en ing
Ġkap alit
ĠP amp
A ko
N ap
Ġp ek
N G
Ġna ip
aw ing
Ġpro v
Ġinih ayag
Ġt abi
os a
ana da
ser il
ĉ Ċ
ĠAl bay
ĠM in
ar l
Ġik atlong
trans aksyon
Ġs en
le ge
Ġter or
a alam
tr act
aling an
ĠCay etano
Ġh ad
Ġpagp asok
iz en
ĠG um
o f
Ġb ahag
H abang
ĠN orth
Ġb om
Ġpun ong
is es
S abi
Ġak s
Ġh a
Ġmanl alaro
ĠR a
ĠAss oci
Ġs ukat
il ik
up it
Ġng uni
Ġt uk
atak e
Ġmal alim
op er
Ġpak sa
O S
ĠSena tor
U S
s ang
Ġabo gado
Ġnangang ako
Ġpal itan
ĠTum awag
ĠM ic
t ed
ĠF ore
ĠB ul
ug atan
iv al
Ġ anay
ĠH ar
ub og
S in
Ġmana t
ĠSup t
Ġd om
Ġlik as
g er
b urg
ach ment
Ġta as
T I
Ġop in
A lam
ekt ahan
p ost
ĠP ol
ĠAg u
on ood
usal em
Ġt w
Kah it
r d
en sa
inan ong
M atapos
Ġnana y
Ġd ark
um a
ath ala
Ġag ain
Ġsas abihin
Ġkam akalawa
u es
ist s
Ġp ot
Ġp ayo
Ġnakik ipag
up ong
ap ore
h y
ĠJ am
ro t
ĠAd ministr
Ġmat iyak
Ġgano on
Ġbag uhin
Ġs ulat
er ry
Ġproduk tong
ĠS pe
r up
y ento
ĠComm ons
re et
Ġnags abi
Ġb andang
ah am
Ġip inat
angg an
ĠD iv
Ġka away
ĠG e
Ġmot orsiklo
Ġpo int
ga s
ĠPed ro
ah ayan
ĠA ustr
tr es
Ġb oto
Ġko po
Ġkal uluwa
PA UNAWA
Ġf am
ĠP AG
Ġk inas
D apat
Ġkat ap
amant alang
Ġporsiy ento
Ġs unog
in ta
uw ento
el la
Ġbu y
is o
Ġlisens yado
ap ekt
os yo
Ġsin umang
ĠD oc
im um
Ġkontr ata
Ġkap ayapaan
Ġkat an
Ġb ih
Ġip ap
Ġsak aling
Ġp awang
Ġkas ing
r ib
Ġp uro
ris is
ĠJ un
Ġt ula
Ġpres idente
ĠK an
Ġpamamag a
ĠP inag
Ġk id
Ġginaga wang
Ġpos ibilidad
Ġkopo nan
ula can
ĠL o
Ġor ihinal
Ġpagk ah
Ġa fter
os isyon
Ġin sp
i ang
ak ilala
iz a
Ġma ib
ab aba
Ġk ulang
Ġil igal
Ġpart ido
B akit
Ġm urang
ĠMa aaring
do ck
Ġt upa
ĠJ ul
ĠS ar
Ġnatag puan
il aw
ins unod
ĠSant iago
Ġharap an
ĠD om
Ġkam akailan
ib ili
Ġlas er
Ġyo ur
ĠC reative
y l
Ġpr iv
Ġumi iral
Ġv ol
Ġor d
Ġnat atang
Ġs uka
up ortahan
Ġproduk syon
ro id
U L
Ġmangy aring
Ġv ery
b uhay
l aban
Ġtul ungan
! âĢĿ
M al
w ard
Ġm ismong
al ayan
Ġbec ause
wit ter
a alaga
eks iyon
vin cial
Ġm aw
b ahay
Ġmaik ling
ĠN orte
Ġd oc
A C
uyo d
Ġnagk atawang
form ation
ag awang
ed y
ub ay
Ġpagk al
Ġw ag
Ġkal ihim
Ġkasama an
ip l
i isa
Ġal kalde
T h
Ġm ult
es is
Ġkal aban
Ġpun to
ont rol
ari o
Ġpamum uhay
Ġre f
ĠS apagka
ĠMar awi
Ġgawa ing
Ġb ir
ĠAs ia
ah as
ĠRos a
ur ong
Ġpareh o
N C
ĠGo ogle
ĠPro gr
atak ot
a alis
na mpalataya
ĠN et
arant ine
ĠJer usalem
ĠC ab
el le
ĠK um
Ġnap atay
Ġbin ubuo
ar s
d ing
Ġp us
ĠP in
ĠAr my
ot a
ĠK orte
Ġmag amit
k uk
Ġtind ahan
Ġp ilipinas
ĠL isens
ibers idad
b ibigay
Ġkump ara
Ġmak al
Ġtoena ils
to to
Ġmak ilala
ran ch
Ġkinaka ilangang
v ices
ĠP ublic
ur se
Ġd ek
ik os
im ent
Ġto es
un yag
ĠP er
em or
Ġm obile
Ġ z
Ġf und
Ġtr en
r er
Ġsh ould
Ġsa ad
Ġland as
as ter
Ġartik ulo
abaw al
at s
Ġ roon
ali f
Ġpin ili
Ġs ib
Ġb ub
er v
ĠDe f
Ġs ta
am is
Ġtin anggap
Ġh ard
ĠN arito
ĠSet yembre
sa ve
ĠB or
Ġp ort
Ġt ro
Ġl ayo
ĠFer nan
Ġut ang
ĠReg ional
il idad
ĠB ulacan
M ula
ĠIn c
Ġtar get
inal ang
uk in
Ġd et
Ġcom pl
Ġm illion
6 0
u yang
alak ihan
r os
Ġkas abay
al on
Ġw along
Ġpagp up
... ]
ĠCav ite
b y
5 00
Ġw akas
Ġpal abas
ar anas
il yo
ĠI m
ĠDr ug
Ġsak ay
Ġd eb
es ta
l it
ĠLot seril
Ġmateryal es
bi z
ĠC CP
A H
Ġ3 3
Ġfung i
ingg an
Ġt ungo
Ġp uting
ap al
ĠS imb
Ġb usiness
Ġma in
ĠIt al
.. ...
Ġbers yon
i eld
ot s
apekt uhan
Ġmar ahil
ol l
are z
Ġeff ect
ĠL or
at ap
ag anap
ĠD el
iy as
ĠSan to
Ġnagsis imula
E P
w an
Ġa abot
Pagk atapos
ĠB at
Ġpagk as
iling kod
Ġip inal
pat uloy
Ġco ok
Ġj u
Ġnam um
Ġpuw edeng
ĠSing apore
Ġs l
Ġmatag umpay
Ġw ould
inat ion
ak ing
Ġis tr
Mat at
ĠP ad
Ġdak ilang
Ġbo x
Ġap ar
Ġhum antong
Ġil og
ĠM ed
ip an
y ano
ĠK uko
Ġ201 4
ir inig
Ġno w
âĢ¦ .
f o
aw alang
ĠMus lim
ab e
ut r
Ġmat emat
Ġpagl alakbay
nak aw
ac ter
ind igan
Ġdirek syon
Ġhum ih
am as
ĠL ang
um ano
Ġper cent
Ġs unod
Ġkr us
s unod
akat uwid
Ġpalat andaan
Ġpam il
U m
Ġc lass
ab al
her n
Ġsc reen
Ġil egal
r ay
Ġpana til
stit usyon
Ġ et
Ġgagamit in
Ġ201 2
Ġek sp
Ġipina h
Ġl ive
Ġg ayundin
Ġib ibigay
Ġcon f
Ġhum an
b ack
re h
Ġv al
ĠCusto ms
ĠH abang
b an
ap e
ab o
ur n
in h
Ġga bay
Ġkatan ungan
as ahan
ĠM r
anda ang
ĠCo uncil
Ġkabu uan
os p
Ġkuw arto
ĠS otto
Ġs ilid
Mag agamit
Ġpagbab ayad
Ġhand og
ĠM ult
Ġd ela
angk apan
Ġug at
Ġbo ard
Ġpad er
Ġsiy empre
M ak
A B
Ġw ater
ind a
Sh are
our ce
err or
to o
Ġ unti
Ġb and
Ġmail apat
A K
m ay
ĠE ng
Ġes k
arang an
ĠRey es
uk ha
Ġpagp apag
Ġkam po
ĠM arami
Ġn eed
ir on
Ġmak araang
red it
Ġpum ili
Ġepek tibo
Ġmal ing
ingg it
ĠHal imbawa
Ġp ut
Ġnak ipag
il bing
Ġpagbab alik
E L
Ġlik e
C h
ĠKore a
Ġo ther
Ġum inom
Ġr ating
ab l
ĠAnt i
ĠG lor
Ġis t
t i
lob al
Ġd amo
Ġ igo
Ġbul ating
H e
ĠBatang as
U lat
w ento
Ġbe en
amp oo
I V
ĠJ e
Ġsa y
Ġtr ap
ĠB ukod
ik ilala
ĠB ill
l ess
r ic
Ġpagk at
Ġex c
ĠA uthority
Ġcom munity
Ġmagk ag
Ġkah irapan
y m
Ġk now
Ġsup port
Ġkag anapan
Ġmabig yan
Ġpagk ilos
ĠT akdang
Ġkun in
Ġd on
Ġsand ali
ĠW eb
alaga an
Ġnar ito
ukl asan
Ġorgan isasyon
Ġgumag ana
Ġt ig
Ġwh at
Ġlo ve
ud ulot
ig ong
u x
Ġil aw
ĠEuro pe
Ġart ista
Ġtemp eratura
Ġkum pl
inis in
Ġkal alakihan
Ġpers on
Ġwork ers
ĠSpe aker
Ġar m
P NP
Ġeng ine
Ġak tres
re ad
Ġex t
ad ali
u ation
ah ad
Ġj eep
ĠSt ar
Ġmat anda
Ġto ur
Ġf riend
Ġma aga
aling sing
Ġpul it
Ġb untis
Ġpagt uturo
ĠS chool
rob ers
3 5
Ġkas amahan
ĠP ort
Ġs to
Ġal isan
Ġmis is
Ġpuw ede
T um
ĠB in
ĠAt tribution
Ġs un
Ġ3 1
A y
Ġini isip
v irus
ĠLisens yang
L um
Al ike
Ġco urt
om enda
Ġk ama
Ġb isita
iy al
ĠMag andang
ic i
Ġt unog
ĠO n
Ġnak ilala
Ġsin uman
Ġmam atay
Ġwe ek
Ġac cess
Ġ inal
ĠB uhay
Ġpagpapat upad
Nab atid
B ag
amdam in
j o
Ġnakak apag
Ġ ero
Ġnil ikha
Ġeb id
k ung
Ġsek tor
ar on
t ar
ĠIs lam
Ġk l
ĠSupre ma
ĠE sc
ug ang
Ġgin to
ĠS C
Ġbag yong
Ġmah ahalagang
Ġtit i
Ġc ash
Ġlum itaw
Ġsa yo
ug ma
ĠGar cia
ĠAb u
Ġmab uhay
U nang
. [
E C
ï¿½ ï¿½
Ġim pek
Ġt angg
ga mit
ĠA SE
r ant
ĠN asa
Ġak tor
Ġib alik
Ġmakak apag
angy aring
to mat
Ġbas ahin
Ġtin it
abay ad
ĠGawa in
z an
Ġkomp anya
Ġm isyon
ĠASE AN
Ġoff ice
ang ing
Ġparas ite
Ġs em
ĠA re
Ġimp e
ven ue
ĠSt ation
ĠS ino
od a
com e
Ġsp ecial
R A
uw el
ur is
ĠFore ign
Ġin is
Ġusap in
Ġbar ko
Ġsund in
s is
Ġnat at
ĠManag ement
ĠN eg
Ġnagkak ahalaga
Ġc irc
Ġmat ukoy
Ġpag na
Ġkont robers
Ġsh ort
Ġm ess
ĠRuss ian
ĠTrans port
pag k
Ġtat anggap
Ġde f
Ġmak amit
s am
ump a
m et
E d
t ag
Ġpagk atao
ĠFor ce
Ġpinag m
Ġs imulan
Ġnat anggap
Ġkam ag
Ġj o
angk op
Ġkatap usan
re w
le ase
ĠK atol
ip unan
ĠB um
Ġkap al
ĠM en
ys ay
! "
Ġs ports
Ġe qu
u ento
Ġp iliin
âĢĿ .
Ġkilom etro
p i
de z
ĠP arang
ire d
al ok
Ġcon d
ol ina
ĠG ab
ahil ig
Ġb ody
amp ion
Ġsub ukan
Ġdi umano
Ġpap unta
Ġbas ura
Ġak ala
Ġtr aff
ĠB on
Ġ201 1
Ġis k
ĠCh ar
ic le
ast os
Ġmags agawa
ĠB ay
Ġnap at
il ib
vers eas
H in
e ase
Ġs te
ahala ang
Ġ ulan
ĠS U
P C
N at
Ġnatatang ing
Ġpag diriwang
Ġdirek tang
ĠBo ard
Ġp u
Ġpang ako
b e
ĠC amp
Ġis la
ik at
ic one
Ġis as
Ġal so
Ġnagpap ah
g ing
Ġnagm ula
ĠLag una
Ġc all
Ġnat apos
pos isyon
Ġm etro
Ġpresident ial
ĠProgr am
ona virus
Ġbre ak
ĠMo ises
ĠS inas
Ġpangkalahat ang
ĠGlor ia
ĠM M
Ġbat ayan
ut s
alakas in
Ġg ayong
Ġm et
al aban
aril yo
Ġkom ento
ĠPag b
aw it
inis ter
Ġg anda
Ġb et
iment el
Ġw ant
ik ano
ĠRuss ia
Ġmah anap
Ġcont rol
ob o
N il
Ġtag agawa
ĠB ut
Ġkas angkapan
Ġfung al
ĠF ar
ad al
Ġam ag
Ġm alag
Ġdum aan
sh ip
Ġp ula
u it
okes person
ĠPag l
il igtas
Ġpak i
ilit aw
ĠM ig
Ġeh ersisyo
Ġs uriin
Ġkag and
Ġmag m
Ġkan i
ar inig
ag aling
ĠJos eph
ĠP imentel
onal d
Ġig lesia
at ory
ĠT om
ir erek
do w
ĠC ap
ĠD ay
Ġpagp ili
Ġ uli
Ġpinakam ataas
Ġgam e
Ġf ree
Ġac c
Ġ ub
ir t
da ang
um ent
awak an
ĠG an
ĠD ec
ĠP inak
Ġmagk as
Ġpinak abagong
ĠL and
d apat
Ġl et
ol ution
ĠS ay
gin iit
akt ura
ampa ign
Ġam b
B atay
Ġsamp i
aram ihan
Ġng ang
os yon
ĠKas i
Ġpang alawang
er on
Ġsup ply
Ġkar agdagan
Ġpop ulasyon
s ama
Ġpors yento
v ed
ĠS ocial
ver age
if t
ĠM RT
h asa
ĠM ang
Ġmay or
Ġpagt atapos
ec tor
iz ed
Ġcoun try
Ġkal ayaan
ĠIn t
as iwa
uk asan
Ġel der
Ġibin ibigay
.... ....
Ġbiy ahe
Ġkas api
Ġmasas abi
ĠV i
Ġnarar apat
ek tibong
Ġal insunod
ĠPas ay
v es
Ġb est
Ġkah alagahan
b p
b al
ĠR ich
Ġg irl
ĠIs land
Ġesp irit
Ġp und
Ġd iyos
Ġak us
ĠL abor
P h
ĠDO H
ĠB ro
ĠT unay
Ġpas alingsing
Ġdum i
ur y
Ġsh op
17 0
Ġbina ta
Ġm apat
ĠSt ate
Ġsum ali
isay as
ĠK ris
Ġng ipin
Ġipinag b
Ġkawan i
Ġpags unod
it iw
d ote
Ġf ood
k aroon
Ġmod elo
Ġme dical
Ġpop ular
Ġsigur ado
Ġ ila
ak alat
D i
Ġk ill
Ġimpe achment
Ġmatat anda
al os
aba an
ð Ł
ad em
y t
ink les
ĠSal v
Ġgr upong
im ili
Ġday uhan
ĠPag pap
Ġt atay
Ġpina b
ump is
in c
8 44
Ġinil agay
Ġh om
onom ic
u ong
Ġf ilipino
Ġsa ma
inal s
ess ion
Ġopin yon
ĠA lex
Ġp ulong
Ġnanin irahan
Ġ20 20
Ġnana nal
Ġpap asok
Ġpa ck
Ġuma asa
Ġwh ich
n oy
it ness
Ġst ag
Ġt ik
Ġdrug s
Ġmabig at
ib er
ual ly
Ġmal usog
ĠCar l
ĠG R
ol ekta
Ġc it
ĠC ongress
ĠEd ucation
Ġd amdamin
on z
Ġat bp
Ġl am
Ġisip in
Ġpaglil inis
Ġero plano
Ġkas unduan
Ġt ugon
end er
Ġl ine
G ina
ĠM os
id s
ĠH ospital
apat an
ig i
Ġf oot
aran iwang
Ġm om
Ġtum akbo
Ġtablet as
N i
N asa
Ġay usin
ok e
Ġib ahagi
Ġpinat ay
ĠKah arian
Ġsug atan
Ġmas us
Ġass ist
p apat
apit al
j u
kuk unan
i ence
Ġpahayag an
Ġpar i
Ġs k
ĠS M
ĠI I
Ġmang ang
b in
Ġt amb
Ġsta ff
Ġya ong
ĠâĢ Ķ
Ġc ity
j oy
Ġbak al
if ication
orm a
r id
Ġpar te
8 20
Ġnan d
Ġw ere
ar eh
ĠU k
Ġon ly
Ġsiy am
Ġtum anggap
Ġmus ika
Ġ Ð
ul to
Ġst ate
Ġna unang
Ġpam unuan
ement s
anda igdig
p ress
ĠSe a
Ġs uot
Ġre d
Ġro om
up unta
amb ing
alan in
Ġnegosy ante
y os
il bi
ĠPag h
im pl
Ġh epe
O C
l eta
M ar
a EUR
uc t
in i
f ore
D agdag
Ġkap ak
ĠN i
Ġo ld
Ġas o
ab it
ĠB ong
Ġ3 5
ord er
Ġcor onavirus
ĠSup er
Ġde vel
Ġesp iritu
Ġlib ong
A s
iz ens
Ġtablet s
ĠV isayas
Ġkad alas
ĠK ag
ect ed
ate o
Ġsak op
Ġfor e
Ġnal alaman
ĠB ang
Ġar al
al itan
Ġh aba
ad ing
p on
ig yan
Ġkad ahil
Ġpab alik
Ġpin to
ĠPamp anga
ĠP ak
tr ess
N oy
ĠS ana
Ġnak araan
ram e
ĠB ac
Ġpinagm ulan
Ġd ila
Ġprop eta
E T
7 170
Ġpam antayan
Ġban ta
ild ing
In ih
ĠF RJ
Ġah ensya
Ġpagb isita
Ġpalak ihin
Ġinter national
Ġkakay ahang
u usap
ĠG ayunpaman
Ġnang g
Ġl arangan
ĠC ag
Ġmak e
Ġit em
Ġk ahil
ĠJam es
ĠW h
Ġpagpap a
Ġitinat ag
Ġmat ulungan
ĠF il
Ġl evel
Ġdep ende
Ġkons ep
m i
Ġc ampaign
Ġl inisin
ĠE v
Ġcell phone
Ġqu arantine
ĠL as
Ġpang kat
ĠO h
Ġapar ato
Ġtr uck
et ing
ump leto
Ġbangk o
ab ihan
Ġkur so
ant ad
w ala
Ġl ong
IL G
Ġwr inkles
Ġmab awasan
al ayong
l oy
ga wang
T r
Ġdi in
ĠH igit
ĠE D
Ġsec ond
Ġmapang anib
Ġ ala
Ġtw o
ub ad
Ġmar inig
Ġtina pay
M araming
Ġsa ser
Ġpana nak
Ġat ay
Ġkum b
o ff
ist is
gin ip
Ġpagl ikha
ĠIn vestigation
ĠBa ut
Ġp alagay
il lo
Ġw a
Ġpag e
an c
Ġtul uyang
Ġna isip
Ġkrim inal
akas ama
uw iran
ĠT ulad
oc an
amp as
T F
ay aw
ig la
ub le
ĠUn ion
G usto
ĠC r
Ġpanatil ihin
Ġh anggan
hat ian
di in
Ġoffic er
ĠG overnment
Ġs ens
Ġpangang alaga
1 00
im a
umb as
Ġt echn
co in
Ġpagtat ayo
it is
Ġtr ip
aram dam
Ġp ict
Ġde al
Ġb el
Ġ ..
p ot
Ġl ahi
ĠW est
ĠM ana
ga syon
io na
C om
Ġin v
ĠC ream
Ġd igma
Ġmis ter
Ġl ife
Ġp alakasin
ib ak
p ut
is enyo
l er
ung ong
tomat ikong
ĠPe ople
ĠI mp
ĠN BI
Ġpagga nap
Ġtum aas
is da
ah ing
ate g
Ġmagp akailan
Ġcam era
G ayunman
Ġman ipis
ĠH ong
ag es
Ġab ot
Ġ200 9
Ġpagkah ulog
m ar
B ago
r oseso
Ġr un
ĠA venue
ĠSp okesman
Ġl og
u ff
ĠEuro pa
es isyon
Ġpan ib
Ġhuk bo
ĠO ng
le ng
en i
Ġlub hang
co w
Ġpl at
for c
ol y
s imula
ĠH apon
ulat an
and o
Ġlum alabas
Ġst ud
Ġs ide
ĠSa udi
Ġpagkakata ong
Ġfam ily
Ġc han
ĠPh il
Ġsup er
ump ati
Ġsaser dote
Ġmanat ili
Ġmat ugunan
Ġgan yan
imbestiga han
Ġt iwala
Ġpan ingin
f r
Ġwar rant
Ġh iwalay
ĠW ork
ĠMe dical
Ġsa d
ĠP inas
Ġtat too
ĠMult il
ĠE g
Ġph oto
ĠRep ublic
Ġbab oy
ĠS c
al ab
isit ahin
ĠMultil otto
Ġn ob
aloob an
Ġpe ace
ĠAl v
8 0
Ġre m
Ġbin uo
un ita
alo ocan
il yong
Ġp hone
ĠKap anahunan
Ġling kod
Ġgina nap
Ġbag aman
Ġka unti
Ġpis ikal
3 6
ub hang
Ġnagh ihintay
Ġv ide
Ġpuw ersa
Ġmah ulog
an e
Ġneg at
us ot
S W
uh od
lo od
ĠP atak
ĠM atapos
di an
ĠO b
Ġpagp unta
Ġkinat awan
Ġh ar
ĠI yong
I G
ĠMal ays
Ġo l
Ġt angk
al ia
Ġg et
Ġmanag er
Ġlab or
Ġpelik ulang
ĠPag gamot
angk in
ĠPas ko
b akan
w ays
ĠJ uda
ĠN PA
t t
Ġpagb uo
Ġsin is
ina do
ĠL it
p ol
ug g
7 0
Ġsina l
ĠCom mun
Ġpagtit istis
ak ap
ic ations
Ġparas itiko
Ġin umin
Ġpatay in
ĠB ab
Ġprot eksyon
Ġs top
Ġf unc
ket ball
i ol
R B
Ġpagkak ak
Ġreb el
O o
ĠF lor
3 2
uh ayan
ĠD ito
we et
Ġp ork
p ara
b ahayan
to c
y le
ang in
u usapan
ib ot
Ġoper ations
Ġmana lo
Ġnanal o
Ġp usa
trib usyon
Ġmust asa
ĠMan ny
ar es
ur ance
ĠP um
Ġl eb
Ġf inan
ĠD um
big kas
Ġung uento
ĠS alamat
Ġdum ad
Ġka arawan
ĠInd ones
alag yan
Ġlok asyon
ib ilangan
ĠI lang
s y
Ġpinag b
Ġar rest
Ġisina gawa
Ġshow biz
I P
ĠSub alit
ac io
ĠMig uel
ah irap
T A
Ġmags alita
Ġd est
Ġam oy
Ġmagp apat
Ġagain st
Ġ4 5
ĠC an
Ġtag as
M P
uh os
ĠG er
ĠAr ab
ĠOFW s
Ġbas i
Ġnil alang
ĠFor ces
Ġf ire
Ġsam ahan
3 1
op s
3 4
us ulong
al hin
ĠH in
Ġm id
Ġtinut ukoy
t le
i j
Ġkahil ingan
Ġs im
Ġt od
Ġit inak
Ġinsp ir
il ikha
Ġma intindihan
I giniit
Ġnar am
et ong
Ġb on
Ġsob ra
Ġplay er
ĠK ay
bo ok
ĠB er
Ġmas arap
ent ro
Ġprogr amang
Ġh ugis
Ġt ema
ag ram
Ġman un
ĠS angk
Ġkan ina
ta ong
Ġbo ok
Ġmagkag ayo
ud ad
Ġmagp at
A SA
eb isyon
Ġp ilipino
ur ch
alim utan
ep ektibong
Ġmagag andang
am ilya
ĠJ es
Ġnar arating
ab ilit
Ġl ola
Ġto e
Ġbut as
ĠF a
ĠBaut ista
aw at
Ġpinan s
Ġp es
Ġkil os
uwal hatian
er ya
Ġf ight
K asama
Ġmags imula
ĠCas ino
ĠAssoci ation
Ġnak ad
ĠUn ang
Ġtum ingin
Ġpr os
Ġapl ikasyon
u yong
ĠP ark
ĠN ueva
Ġnakas ulat
Ġt y
ic ol
Ġmal l
Ġth ink
Ġpir aso
aw aran
ĠN ar
D I
Ġp ip
ĠCent ral
er ong
Ġth en
ĠAnd roid
ut upad
Ġsen ior
Ġ8 0
ĠK asama
ant i
Ġph arm
et te
ĠPro duk
Ġum uwi
ON G
Ġisip an
ĠInter net
ĠSalv ador
Ġkol ehiyo
Ġa ff
Ġnaw alan
z er
Ġit inal
kan ilang
ov a
ĠPag bigkas
Ġpres yon
eral co
Ġpagt ut
kal awang
al ly
ĠT ol
oc o
d ro
Ġprins ip
Ġkar ne
oto han
ed eral
ie w
am e
ill s
Ġun ibersidad
ĠT an
Ġy ata
ĠW in
ĠJ eh
Ġc ert
Ġpina h
ter nat
Ġact iv
Ġmon ey
l uran
Ġlum apit
ail alim
g ar
is on
ĠSand igan
ya f
Na una
d en
ip ad
3 8
ĠG al
Ġd ist
S um
ĠK in
Id inagdag
s et
Ġg ulay
Ġmag trabaho
Ġma inam
Ġf ans
Ġt anda
Ġmatemat ika
ĠMos cow
Ġf eed
Ġmagt at
Ġkas iyahan
Ġgan i
ise o
alag ad
ĠCor por
and al
Ġkarapat ang
Ġkaram ing
Ġkum ita
Ġap ektado
N aniniwala
emb ers
Ġuma abot
Ġofficial s
Ġpanib agong
C A
ĠSay yaf
ĠDiv ision
Ġbul ak
erb y
Ġh ome
and og
Ġreg alo
itor yo
Ġsug at
rip isyo
Kin ilala
a aralan
Ġhinih inalang
end ing
ĠT apos
al de
Ġpina y
Ġda igdig
Ġniya on
ĠC aloocan
ĠW ar
Ġnagt atag
or in
ud ero
Ġpint uan
Ġkalak al
ĠD an
Ġmilit ary
Ġmod ernong
uh it
Ġpat ungong
as inan
ĠT al
ug at
ip ment
Ġnak asaad
ĠRo ad
w ord
Ġkinab ibilangan
Ġsub ong
Ġtrap iko
ot her
Ġmak abagong
Ġpolit ical
ic ip
Ġbab alik
Ġpis o
Ġ200 7
Ġpuk e
Ġkonsep to
Ġ x
ĠS m
ila an
Ġtat ak
ĠO per
Ġnagp at
ag ing
Ġig in
Ġb awang
Ġpanl abas
Ġim o
iv ing
Ġp alang
Ġdat os
ĠB atas
ĠIlo cos
Ġmak aka
Ġhangga nan
ĠT ur
Ġwork er
Ġres olusyon
Ġnas ugatan
tain ment
im o
Ġpinak ah
eh an
Ġbiy aya
ig ang
Ġdis posisyon
Ġaks idente
ell ig
up aran
Ġnaram daman
Ġsm art
ĠE banghelyo
ĠSt reet
ĠSy stem
w w
Ġ7 0
Ġpinan iniwala
Ġus er
ĠW ik
Ġpagsas alin
Ġ alang
Ġw orld
l ano
iy ente
Ġkab ut
er gy
Ġt alam
Ġh usto
Ġpagpap akita
A W
Ġpagsis ikap
l ibong
ta ur
ĠMart in
re ng
unt ahan
Ġpagl aban
ĠBu ong
Ġ alagad
ĠCag ayan
igr ation
Ġipinah ayag
ul uhang
Ġimpl ants
h ost
ol id
ih oh
ĠU P
Ġin vest
ĠD ela
Ġo int
Ġnang ag
und ong
Ġn ew
ot h
ĠJ im
Ġhinah anap
alag anap
Ġte orya
tor y
Ġsc am
Ġkas anayan
Ġplat form
Ġex am
Ġb id
Ġse ason
em an
Ġtumut ukoy
Ġkat umbas
om en
ĠPas ig
ag andang
Ġpagl ul
Ġbibig yan
d ong
im on
Ġd iri
ed a
Ġw ay
s as
Ġmo vie
u f
Ġb alan
Ġis ama
ĠSandigan bayan
abah agi
ĠWill ie
Ġkan ang
I lang
Ã ©
a ong
Ġek sak
ound ation
Ġpana ginip
ĠP agd
ĠP re
Ġprot ina
ĠEx ecutive
Ġsp e
stit ute
Ġmag aling
og rap
ĠB oy
ĠSec urity
Ġcomp any
U N
Ġt am
Ġpre m
Ġh iling
Ġw ell
ĠK im
Ġbro w
Ġtum atakbo
Ġbir th
on el
Ġsena tor
ap h
o ugh
as tern
ĠS te
Ġst ar
Ġm art
it ude
x t
umb ayan
mit e
Ġh amon
Ġpagh ih
b l
al al
res to
ĠA pr
ĠS u
Ġnagh ah
z ar
Ġwh en
Ġsil icone
h ali
Ġkal ahati
Ġmed ikal
Ġkat iw
ĠD on
ĠG onz
ik as
os it
erg ency
ĠSp ecial
Ġnagb alik
ĠNa is
Ġro und
ĠEn r
Ġpro cess
h ati
Ġb oses
Ġad vert
ĠPet ers
!! !!
ĠL iza
te gr
vent ion
isyo nal
Ġst ation
Ġisina gawang
ĠC ons
ma il
alak al
Ġcook ies
B ase
iwala an
ĠAlv arez
Ġin iwan
Ġcan did
Ġipina kita
ĠDO J
Ġmak ina
ens ity
ub a
v iron
iw alang
Ġtum awag
Ġb is
ul utan
ĠI D
Ġm ina
Ġdisk arte
Ġcont act
hh hh
Ġstat ement
ab ago
l alaki
Ġlayun ing
ik ilos
Ġinih ain
om an
Ġtum it
iy ong
iy empre
Ġkinab ukasan
Ġsp ec
Ġb inat
Ġpang g
ans ya
Ġm or
ĠAir port
Ã ³
er asyon
Ġd yan
Ġtransport asyon
Ġcas ino
la im
Ġtin ukoy
Ġkar ag
ug ali
Ġkapak anan
Ġst art
atap uwa
M arami
Ġmat uwid
Ġh erb
ĠTransport ation
ult ure
Ġbuk san
ik adong
unt unan
abas e
Ġg wa
ĠEsc udero
Ġsamp ung
ilan lan
ek tr
t uloy
zon e
Ġh our
ĠED SA
Ġmana nal
ambo anga
u ig
ĠB ago
ĠO p
I kaw
Ġnal aman
Ġnagk as
um er
Ġka una
Ġtinat ayang
Ġbulak lak
ĠPatak aran
n ot
Ġbur dock
ih ing
ĠS il
ĠE le
n i
O L
ĠPa ul
ĠJ ac
ĠH uling
Ġm g
Ġeks ena
Ġan uman
ĠJ ud
ĠFrancis co
l ish
ak in
ipe dia
Ġkan ta
ĠAk in
Ġsent ro
Ġb i
Ġal low
ĠS el
iy ahe
ac ay
ĠN ab
Ġfe el
Ġr est
ĠPang asinan
Ġmag n
akas al
ĠV ideo
Ġac id
Ġev ent
9 9
3 3
um al
ĠH er
ĠK on
Ġpab aba
Ġth ese
ĠA gr
ra ine
Ġpagpap as
ĠDr ilon
Ġpagpap ahayag
Ġlead er
Ġdal oy
ĠO o
Ġmagk asama
____ ____
Ġs oda
Ġd iwa
Ġm ari
i ent
Ġtel ebisyon
p ya
P inag
Ġtag ap
Ġtuk tok
Ġmag awa
Ġsto ck
ĠC y
Ġb ayang
ol i
ry p
Ġaw it
Ġmap abuti
viron ment
ĠSen ior
O T
Ġsel f
Ġartik ulong
ĠW ord
ĠTr ump
ab uso
Ġpana langin
Ġnad agdagan
Ġnakak uha
Ġins tr
Ġpagbub ukas
ĠP EP
Ġlup on
Ġang hel
Ġl emon
ĠD FA
Ġkw arto
ĠI V
Ġd y
Ġfore ign
ĠG MAN
Ġnap ansin
ad ura
Ġmen or
ĠPeters burg
ah iya
ĠP inay
alaw ig
p res
Ġh orm
Ġmah ih
Ġkal inga
Ġpagh ahatid
ĠAn n
rec t
uk hang
Ġkatiw alian
Ġco ach
Ġiss ue
ĠM el
ĠRich ard
ĠI d
ĠAr med
ĠY ork
ĠPro t
Ġh anapin
Ġka unting
Ġe banghelyo
Ġkal uwalhatian
ĠIn st
Ġta inga
om et
ĠS ul
re y
igit al
ĠProduk to
ab ato
Ġsh ampoo
Ġpana wagan
Ġko mite
ĠGMAN ews
i ano
taur ant
Ġgam es
Ġle eg
ial s
Ġc redit
ĠM eralco
ĠK ami
t ulungan
Ġkah on
Ġpr ay
ĠY ung
ĠV ol
isk ubre
Ġrad io
ĠN aniniwala
Ġsum uko
in ung
Ġsapat os
or ry
Ġmagk aka
Ġpag w
ĠE ci
un ungan
Ġe very
ing isda
L ahat
ha el
ĠGam es
Ġal ok
Ġpulit ika
Ġbon us
l ed
Ġban yo
ĠAs ian
ĠAn ong
Ġnait ala
S ub
Ġk ey
Ġpags abog
Ġb ras
ent ion
Ġnas ak
ung at
Ġpa ulit
Ġum u
Ġmarket ing
Ġr ight
Ġtum igil
Ġkl iyente
as is
Ġsup ortahan
our ces
Ġl alam
angg uni
ĠL uc
forc ement
ĠL t
Ġ5 00
Ġkalak alan
Ġalin mang
ĠIlo ilo
Ġh o
ĠC anada
ĠGR N
Y ung
Ġh alagang
b ar
Ġan u
Ġpamum uno
Ġmalam ig
Ġtum akas
Th is
ano orin
Ġaw tomatikong
ip iko
Ġkalam nan
Ġfol low
ĠIs ab
pak inabang
l ap
ac cess
ch a
Ġis tor
ure d
ig no
ĠG il
Ġap artment
Ġy aman
pr int
ung ang
em e
Ġma agang
Ġpinag h
ĠB ank
ent ino
apag al
Ġlum ipat
P ina
Ġb isitahin
m en
Ġpag od
ĠC hairman
Ġex per
Ġm ember
Ġm embers
Ġcare er
ak siyon
Ġt ala
ip id
ĠH anggang
Ġnatit irang
Ġnas asak
Ġbl ack
b ihan
is ya
Ġtan ungin
Ġit at
Ġmah aba
ĠT o
Ġo wn
Ġtal umpati
Ġdigma an
u io
ata ang
Ġinter view
Ġmah ina
nas yonal
um i
ĠM insan
ĠT ha
up an
ĠBel g
ani el
ĠSer vice
am am
Ġgen eral
Ġl ight
ay uan
b le
Ġhe aring
in ing
Ġtagapag salita
Ġm ura
ĠZ amboanga
ar agdag
ol ar
Ġth ird
Ġin j
ar ungan
ĠSupre me
abag sak
Ġpagsas agawa
Ġkap e
Ġ yon
in ter
Ġg agawa
Ġpas ok
un te
Ġcoun ter
Ġfl ight
Ġtur ista
l ation
v al
Ġnakat uon
ĠKatol iko
Ġkah ih
Ġipinang anak
bo ard
ĠP eter
una hang
ene z
l ar
ĠS tr
ĠF el
Ġbum agsak
Ġr ice
Ġespirit uwal
Ġal ternat
Ġpans amantalang
Ġar mas
ĠU na
ĠInd ustr
Ġp ulang
ĠB I
Ġ3 00
pagk aboy
Ġel eksyon
ĠMa j
Ġ200 8
iyas at
S C
it er
ĠD a
d al
Ġban k
Ġsum agot
Ġ19 7
t anggol
Ġn utr
ab et
Ġil ong
Ġex ecutive
ĠO ras
ĠCast ro
Ġpagl ipat
/ /
al sik
Ġde ath
B P
Ġk n
Ġre aksyon
ĠAss ist
Ġimpl uw
3 7
Ġ9 0
Ġtah imik
ug alian
ĠOr gan
Ġat e
Ġah ente
ĠEci ja
awa an
Ġm etal
B B
ĠAdministr ation
Ġchar acter
ub ilin
it ahan
Ġsul iran
umb alik
Ġsa loob
ĠO l
ene f
Ġm ahilig
Ka ugnay
Ġgr ad
Ġp uti
Ġmab ub
Ġhum ah
Ġkomun ikasyon
Ġtraff ic
Ġnam e
Ġem ergency
Ġpagb ib
A D
ine b
Ġc y
S apagka
mb ass
ĠGr ace
Ġmal alaman
ire k
S T
Ġt anan
Ġel emento
u que
Ġn ext
Ġpan un
Ġser ies
Ġigin iit
Ġipina dala
ord on
Ġnananal ig
Ġ und
Ġkat awang
Ġday uhang
Ġl ot
Ġkagand ahan
ang alan
Ġs inggit
ĠEg ip
ellig ence
ĠM is
ens yal
Ġb isa
Ġina k
Ġda ang
al anan
Ġmat ibay
Ka ilangan
ĠE ast
Ġter itoryo
ĠI yon
ĠBl ack
Ġak tibong
Ġde ad
f ety
Ġs ure
Ġl athala
Ġginaga mot
Ġmal iwanag
ĠC at
Ġbil yong
iyan sa
Ġr a
Ġt inanong
Ġt andaan
at ong
il ig
Ġnagsas abing
ĠAmer ikano
P P
end ent
on ic
Ġkalam idad
Ġ ilipat
Ġta umbayan
Ġinspir asyon
mot e
ĠPro vincial
Ġper form
Ġl amb
Ġkah abaan
Ġel ement
ĠIn sp
Ð ¾
Ġm inam
Ġo o
Ġsig lo
Ġl ng
ĠJ ess
b asa
Ġde vice
ĠG od
alis ay
Ġm un
ĠMak ipag
Ġsaloob in
ar ya
Ġnakat ayo
Ġp ilit
Ġk it
Ġk risis
ĠF ilip
ol us
Ġbay aran
Ġpagk ilala
Ġsing il
Ġkil alanin
Ġch ampion
Ġperpek to
Ġtum ayo
uk ang
al og
ĠEnr ile
ĠC ot
ret so
Ġf ull
Ġcon ference
Ġap pro
ĠT witter
T ulad
Ġal m
ĠM angyaring
v an
Ġnat amo
Ġb er
Ġtum agal
r ong
Ġka usap
ĠP ul
b re
Ġsa t
Ġkal im
ing o
âĢ ĵ
Ġoper at
Ġs ource
ĠC ard
Ġup uan
Ġlib o
ih i
Ġnags alita
Ġm igo
Ġok ay
ĠMac apagal
Ġpa anan
amp i
ĠA w
ĠAp p
Ġl ihim
ĠBor acay
at lo
ĠN as
Ġbe fore
ĠP amb
ific ate
Kas abay
ĠP H
lib utan
and ar
G A
ĠK uwa
Ġev ents
Ġgas olina
Ġat on
ap y
ip it
ĠL ap
Ġpan el
Ġbu o
IL F
otohan ang
Ġbil og
ĠP apa
Ġ: )
ĠA T
ĠT or
it nang
Ġmay aman
ĠM iss
a uty
Ġ3 6
Ġsup l
c t
ro om
Ġn yang
Ġal yas
ic ycle
ĠU N
Ġa udio
aba e
Ġkal ye
las h
Ġp ormal
Ġnagp unta
Ġmas akit
Ġnags imulang
Ġmal ubhang
v is
w iran
Ġk uha
am anan
Ġma abot
Ġipat upad
Ġdek ada
Ġkarag atan
Ġbr and
Ġg ali
Ġgag awing
Ġkump irm
an sa
Ġkat eg
Ġelectr ic
ĠMag ing
Ġac tor
Ġtak e
uy as
andaigdig ang
ĠCorpor ation
Ġsin ing
May roon
TF RB
iv il
Ġv iol
ical ly
ekt ong
Ġkah anga
A p
ĠPar as
ĠM y
Ġhin lalaki
ir am
Ġ enter
T ube
Ġpan loob
eng ue
Ġpar mas
Ġpagl ipas
) :
Ġmagh anap
d es
Ġc at
Ġnangung unang
int ulutan
Ġnap a
Ġsir kul
lim a
rub ahan
Ġas in
mp anan
Ġipina k
Ġpagbab asa
om end
ihin to
Ġcon tract
ag ana
N akat
ĠK ing
ĠIn stitute
Ġtul uyan
l ight
if y
h en
Ġro le
Ġpagkak amali
Ġib at
ens iyon
va il
ug ust
Ġkapit bahay
Ġi isang
Ġdis c
Ġpum asa
Ġs earch
Ġnakat anggap
Ġh ous
B um
it ikan
ĠP A
Ġmakak akuha
ĠTag uig
N D
Ġg ay
Ġl ay
Ġkar unungan
ĠBen igno
k y
Ġv ac
Ġv isa
Ġb aha
ĠN il
ĠNag pap
ic y
Ġn iyan
Ġdirek ta
âĢĿ ,
Ġkag aya
i el
ig e
Ġlum alaki
aman eho
IT Y
Ġpigment ation
Ġistr aktura
ĠL ocal
Ġk uting
Ġkal iwa
ma asa
w el
ĠE astern
Ġpalag i
Ġh ere
Ġpagkak at
Ġpet isyon
d inan
Ġj ob
m int
Ġprinsip yo
Ġpah intulot
akt ikal
Ġair port
Ġs ibil
il iw
ana ta
ĠUk raine
Ġb ola
ab at
Ġpr utas
B in
Ġnab asa
ĠP ers
x x
Ġmap anatili
t al
Ġpat ungkol
Ġkadahil anan
Ġkin ilala
elf are
k er
eg o
Ġmar unong
Ġpagpapal uwang
Ġko pya
Ġtangg alin
ĠV el
Ġtax i
il inan
ĠL ead
Ġme eting
Ġnagp a
Ġsak in
Ġmin imum
Ġpagb ebenta
Ġkil o
Ġkum ilos
' m
Ġpind utan
Ġ3 2
ind e
Ġdis ease
Ġisin ulat
Ġh old
Ġg el
Ġset ting
ĠC ode
Ġposit ibong
as yo
rup tion
Ġk uk
Ġt inag
uk ob
Ġalin man
ĠTa on
stit ution
al ahan
ĠRep resent
t he
Ġb anda
ah imik
Ġin st
Ġip inas
ĠMar ket
Ġniy og
Ġh ospital
Ġlab ing
Ð °
Ġalam in
ser b
l ab
ĠMic hael
ang anak
out h
ul as
ĠRev illa
ĠFernan do
Ġak t
Ġkon eksyon
B uhok
as ahang
iw anan
ĠTol entino
ag sik
Ġn un
es ter
Ġb ug
Ġnag aganap
ra z
Ġnagp akita
er ing
Ġin formation
ĠWik ipedia
g u
Ġ ðŁ
Ġkap aki
Ġlo ok
Ġipinagb abawal
ĠRam on
rip t
Ġhel p
ens ive
Ġnakat akdang
M C
u ela
art h
ĠG ordon
x ide
Ġop osisyon
ĠJ oy
Mas k
o on
Ġnagm um
ĠMalays ia
ĠM ap
b ust
Ġd ays
Ġfunc tion
Ġch ild
r ik
ag on
Ġpas ilidad
ĠS ak
ĠC C
Ġ emb
ĠP ower
il itan
ĠN akita
Matat andaang
ĠSinas abi
ĠUn d
I M
ir es
D um
R C
ĠS w
Ġpam ahalaang
Ġtak bo
t en
Ġbras o
b os
Ġpl anong
ak ong
amb al
overn or
abu uang
Ġf ec
Ġpang alang
bo und
Ġev en
p et
ĠT ungkol
ĠMM DA
ĠB gy
Ġsing it
: //
ĠNag ing
Ġnangy aring
Ġkay amanan
ĠG reen
Ġleb adura
ĠD aniel
Ġum akyat
ol ic
Ġbab y
Ġdem ok
c r
Ġbr ief
is po
Ġmess age
an im
Ġhin iling
Ġhe he
ĠT ab
Ġin u
Ġfil m
Ġd ug
Ġ( @
Ġist asyon
Ġdad alhin
Ġtr at
ĠPam am
Ġkas amang
Ġin irerek
ons or
Ġadministr ation
um e
Ã ¢
Ġth an
ari a
i is
ip a
Ġip aalam
ĠC H
p art
Ġhen erasyon
t m
ob er
ĠSam akatuwid
z z
ĠDef ense
ĠSer eno
ĠCommission er
ab ility
est ic
ĠH otel
ay ayat
ĠCot abato
Ġsig nal
Ġres taurant
ĠR onald
ĠIn f
akat awan
u ugali
Ġd ayon
Ġkan ser
âĢ¦ ]
Ġv iew
amp ung
up date
ĠG ayunman
Ġmakat anggap
d ness
Ġd iv
Ġbiktim ang
s ong
Ġak syon
ĠCol lege
Ġbayan i
Ġpagsas ama
Ġpagl abas
up ang
Ġv an
Ġmamam ahayag
Ġpa anong
ĠD ILG
Ġc el
ish op
Ġ* **
Ġ usapan
S P
ant es
Ġmen u
Ġaw ay
ĠW ater
Ġr ights
ĠH il
ĠL eni
ĠE c
ĠEn ter
Ġnas ira
ĠAr ch
ĠMay roong
Ġstr ess
Ġnas us
Ġmam imili
est ival
Ġmanun ulat
erna dor
ĠAg ency
Ġbrow ser
Inih ayag
or ies
Ġk anan
Ġb inal
il le
do za
ĠInst agram
ĠYou Tube
ue z
Ġd eg
Ġch at
er te
ig s
ang el
ungk ulan
ĠF oundation
Ġpagt atang
uk al
4 9
ĠMa ute
ĠElec tions
alakay in
B inig
int ahan
Ġkat uwiran
uk las
ĠEurope an
Ġnak akita
Ġtest ing
Ġcont in
Ġpriv ate
y ear
ĠAl b
aba it
ab ak
Ġik in
p ubl
Ġkon tribusyon
Ġmakap asok
Ġmak ahanap
Ġprof ile
w ood
lang an
ress ion
ã ĥ
Ġas peto
ĠAs ya
N ana
amp o
Ġsig e
Ġpat otoo
ro ugh
Ġpart ner
ĠGer man
P atuloy
Ġbina bay
que z
Ġs eks
Ġbar rel
P ress
ond ena
Ġma u
Ġnagsas agawa
Ġkapit al
Ġmat anggap
Ġkaran iwan
Nil inaw
ĠI ba
Ġma ingat
Ġpar in
Ġmait uturing
s ign
l iga
Ġpagpap adala
y in
Ġtr icycle
Ġbab ala
Ã Ń
k l
Ġana ly
IT E
ĠMag u
ĠE s
ĠT ask
ĠSangk atauhan
Ġitinal aga
w ede
ab uhay
ĠI big
Ġmapag kukunan
Ġpangung una
Ġkaka ibang
Ġinter est
Ġimpl ement
Ġh ouse
ĠA L
re ement
Ġnagb ebenta
Ġpananal ig
am ing
Ġnak itang
g g
Ġtag ubilin
Ġw all
ib ing
ch ar
4 8
Ġlum aki
Sub alit
Ġpict ure
Ġv ers
Ġt irahan
Ġpar usa
Ġpahayag ang
ah asan
ob ernador
S o
Ġ[ âĢ¦]
iko zan
Ġtro pa
em ikal
Ġpat unay
Ġpagkak atawang
ina ry
Ġpap a
ĠK abilang
ĠR ad
Ġini ulat
g es
Ġal ipin
Ġbak bakan
hehe he
ĠM agd
Ġsal a
Ġkar ak
G U
as lang
ibil ity
Ġpagt ingin
Ġtel es
Ġyo g
ĠA ga
Ġv ice
Ġpal ad
ĠMag s
ĠLe on
Ġpagt ulog
Ġop en
Ġlum al
Ġab s
ina an
Ġnaka upo
ĠOff ic
v ing
Ġperpek tong
Ġna aresto
Ġtag lay
ar ter
r ika
ess ional
ĠPinak am
Ġh ab
Ġkag ustuhan
ist ahan
ka ilangan
âĢ¦ âĢ¦
un ch
inah agi
B as
ĠAlbay alde
5 5
Ġd ahan
ili gaw
ĠEgip to
ĠC he
Ġka ugalian
erb isyo
Ġisina mp
am ento
Ġ @
ac tion
Ġna una
ĠC ath
ĠKat awang
ĠO ut
Ġbas ketball
Ġm unang
Ġmaw awala
Ġh ist
n ers
ug ot
ĠSam ar
ĠBen j
ahin ang
Ġtumat anggap
F RJ
i ingat
ung g
ĠS he
p akan
Ġt untunin
ihirap an
po und
Ġparmas ya
oc us
ĠCor p
ĠW orm
ĠA S
ĠCarl os
e gasyon
Ġb unsod
Ġsumus uporta
ult ural
k aloob
es tern
Ġ3 8
Ġd ahon
ant ala
Na is
el low
Ġpags asa
Ġsiy udad
Ġinteres ado
al ino
ter y
ay anan
ĠAustr alia
Ġe p
Ġkadalas ang
ĠL ope
ĠC A
Ġil igtas
Ġm ur
les ya
ilim an
ĠIndones ia
um o
Ġr uta
Ġpagt ulong
Ġnah uli
ĠTag apag
Ġl is
Ġoint ment
ĠL ungsod
Ġinter nasyonal
Ġtinat anggap
Ġb enef
Ġtekn ikal
ĠSimb ahan
Ġb ol
Ġh ita
ah ah
Ġka isipan
ĠO ne
ĠPag t
Ġpin ip
ansin ukob
er i
Ġpagh ihirap
un ot
Ġf ield
Ġproy ektong
Ġan iyang
Ġel ektr
Ġpagpap alawig
p abor
Ġimp orm
Ġ ×
ĠA v
et nam
Ġpant ay
Ġm iss
Ġmak akat
Ġkab ab
Ġprot ektahan
ĠK ina
B C
Ð µ
Ġs ome
ĠM ach
Ġmak ukuha
Ġ zone
ĠT echn
Ġpabor itong
Ġs eksyon
alis in
Ġyog urt
una w
Ġ200 4
ĠMen doza
ĠS ept
Ġb lock
ah iwalay
u ary
Ġ roll
alang kas
Ġpek eng
Ġkin ikilala
ali z
Ġipinap akita
Ġs ession
ĠA NG
C R
ĠR el
Ġmang ayayat
Ġh alik
ĠD ar
z h
Ġv ot
Ġg reen
p ana
s el
w ag
as y
Ġkah al
F F
Ġe pis
la x
4 6
l l
ter o
Ġa verage
Ġistor ya
ĠBag uio
Ġp i
Ġdem and
ĠC rist
ĠC ITY
Ġbal dness
Ġisinas agawa
Ġpagl alaro
Ġmagp adala
Ġbas ehan
Ġsup ort
ĠA na
Ġpap aano
ur usa
k i
Ġpagl alarawan
W H
ad ya
Ġeksp erto
k ad
ĠGe or
K at
Ġpharm acy
ĠC apital
Ġkag uluhan
Ġsec retary
Ġmas ak
Ġip asok
Ġm ost
Ġbit uin
Ġbag s
ĠInter ior
ĠMagu indanao
Ġk emikal
Ġang kan
ma an
Ġser ver
U T
Ġord inar
Ġnak akas
ir re
op h
Ġpagkakak ilanlan
Ġk lin
ĠL ey
Ġtim og
Ġp ur
Ġtrat uhin
Ġh tt
Ġc er
Ġmab isang
Ġkum akain
os ito
ar as
as abi
Ġap point
8 8
Ġk ulungan
Ġpags ulat
id es
Ġsul ok
ĠL eg
Ġmanag ement
an in
to ber
Ġin to
Ġsak law
o ice
Ġma ari
aw ig
Ġina min
Ġnagb ago
Ġ ess
ĠNat ural
al ap
ak asyon
Ġit igil
x y
es el
Ġsa p
on ekta
ala in
Ġkum alat
ĠKom un
ĠB aka
Ġy um
Ġc ost
l igtas
ĠL P
id el
Ġ[ ...]
Ġkarak ter
R R
ĠH um
est iyon
ay aring
A gad
Ġt ela
up load
ug al
ili o
Ġrespons able
a f
ino on
inat nan
ĠJeh ova
Ġna wa
es o
Ġaw ard
N itong
Ġim ah
ĠEd u
ĠKuwa it
Ġul ap
p en
Ġ inat
ĠJun e
ĠN akat
ib ilang
id ong
Ġmagp atuloy
Ġbin anggit
w at
ĠHal os
Ġs yang
Ġc ock
Ġib on
ahat ing
w orm
ĠJ ona
Ġbill ion
Ġpw esto
N arito
Ġk ala
ĠP ant
Ġbum ubuo
ab ong
ĠT anging
ad yang
Ġpamil yang
Ġp ic
Ġst ill
nan ce
Ġpum atay
Ġtatanggap in
ĠB ig
Ġf ront
ĠF irst
Ġnapak araming
Ġnagkak aroon
angk ilik
Ġmana nampalataya
r ia
Ġpagl ilingkod
al idad
ĠA fr
id ing
Ġdin isenyo
Ġh ow
Ġro ad
ĠPang ilinan
d is
ĠO ri
ta on
Ġsin imulan
tor s
Ġhy dro
asal uku
ip ing
ĠRam os
ĠOn line
or es
unt y
arl ac
ĠPD EA
h ol
Ġd osis
Ġl asa
Ġpo w
Ġl ingg
an ang
Ġina resto
Ġnagp ahayag
Ġrespons ibilidad
alag i
Ġkum akatawan
ĠCh i
ĠOr der
Ġrelih iyos
H um
inal in
al iw
Ġkabut ihan
Ġmakab uluhang
Ġdirek tor
ĠFar iseo
ag aw
rib ado
SW D
ĠI r
S inas
ĠH en
Ġteror ista
ĠP uw
Ġnar irinig
Ġtrad isyonal
Ġform at
Ġmagp a
P aliwanag
Ġres ult
Ġnagl alayong
Ġseg undo
ĠPr in
ĠNov ember
ch ange
Ġpanana g
ĠItal ya
Ġmad ilim
ĠNet work
Ġma j
9 0
our nal
ang is
ĠD em
ect ive
Ġboy friend
olid ay
Ġk uya
Ġk us
ĠTe am
ĠAng ara
Ġhinih intay
Ġth ose
i ation
Ġpup unta
id ence
il and
un e
Ġest ilo
Ġl ih
Ġcr im
ĠMar ch
K um
ĠH a
ec ia
Ġjo int
ec retary
Ġp ataas
Ġbuh at
c ue
Ġ apos
ĠS on
Ġid inagdag
Ġpak inabang
g round
Ġsh oot
ed ule
ĠG old
ĠMan uel
4 7
Ġbak asyon
inag o
Ġdevel opment
Ġl i
alik sik
Ġsum asak
ĠDep uty
ĠKat otohanan
ĠLope z
ĠL ev
ĠM ike
Ġg un
Ġsib uyas
ĠSul u
Ġmak arating
Ġc hair
Ġpagpap uti
Ġj ustice
Ġpos s
Ġnana na
ĠJul y
Ġk amang
ga o
Ġimpek siyon
Ġbe ing
Ġ ic
Ġw ire
re ady
amp alataya
ĠChrist ian
ĠNap oles
Ġconc ern
Ġp le
ĠSan ta
b ula
Ġpas asalamat
ĠN og
ĠPagh atol
Ġf arm
in et
ĠB icol
Ġdo na
Ġc ut
ĠEm ploy
ĠF ood
ĠDi rek
di e
Ġprobl em
istr ado
A FP
at ives
abah ala
Ġst ay
ar ra
Ġkab ig
Ġ3 7
uro l
AL A
uns yo
ĠApr il
Ġv ic
Ġl ansang
Ġsum ailalim
Ġf erry
Ġpol l
Ġrek omend
aw is
Ġnat uklasan
Ġkat uruan
Ġkab ataang
Ġkar ahasan
P um
Ġmod e
: )
Ġpul utong
Ġest abl
di wang
ĠAl f
aran iwan
ĠEr ap
Ġp ila
Ġus bong
ah anan
s in
ap ribado
lo c
Ġsan ang
N PA
Ġper man
dinan d
Ġd ik
Ġpa unang
ag itan
Ġisa alang
s ay
Ġpr ice
g usto
ĠPal awan
Ġsuliran in
Ġpangkalahat an
ĠBit amina
Ġkar era
ĠT ul
Ġth ree
Ġpagsus ulit
Ġlalam unan
os met
R E
ral es
t apos
Ġo verseas
if acio
r ing
Ġnak am
ĠPad illa
A m
Ġnag w
Ġkap ul
ĠFran ce
i en
Ġa aral
is ter
Ġ200 6
er ye
Ġpo ol
Ġgag anapin
ĠDep Ed
Ġsal arin
Ġkat agal
ĠT on
Ġlal abas
ĠChrist mas
ĠMar y
ord s
Ġh ayaan
ĠRec to
Ġhel mint
Ġpot ensyal
k it
Ġt ani
uh ing
Ġus a
ĠLu is
Ġeksak tong
Ġt error
at t
Ġharap in
m ad
Ġr um
ĠH all
Ġsak si
M ah
ĠC up
any ol
ĠI mm
es yon
Ġd alag
Ġano mang
Ġdid to
Ġbur at
ĠH alamang
Ġordinar yong
d le
Ġa uto
Ġnal ul
us unod
Ġin vestigation
uth or
Ġbahag yang
Ġis agawa
Ġg iit
Ġmak inig
Ġ yong
Ġka ib
ĠPro p
ĠP ay
Ġlimit asyon
Ġcap s
ĠJ en
uh o
Ġpan tao
Ġp andaigdigang
Ġg ul
Ġmas yado
agal aw
tib ay
Ġnegat ibong
L O
Ġip in
ĠN e
ĠT arlac
Ġpagl al
Ġug ali
ĠĠĠĠ ĠĠĠĠ
ĠM ahal
Ġac tress
Ġlathala ing
Ġimp osible
Ġt ick
Ġar est
Ġban y
Ġkol eksyon
Ġrebel de
Ġreal ly
di do
Nag ing
Ġkin uk
tr ito
Ġsana ysay
Ġbalik at
angg ihan
Ġpabor ito
i am
Ġbig at
Ġkaram daman
dic ine
ind ot
ĠH el
Ġser vices
Ġnagp as
Ġma x
ĠNg uni
Ġs ilangan
ord an
Ġsang bahayan
ĠLey te
Ġgu ard
Ġbil ihin
Ġik inas
Ġsina k
igay ahan
ĠS to
a ayos
ĠG ayundin
ĠB ur
Ġterm inal
us ayan
Ġk itang
imb ak
Ġsig n
Ġpab rika
ras tr
ĠJo el
ag n
ar ines
Ġperson nel
Ġpagb asa
Ġ3 4
Ġserb isyong
oro on
ah o
Ġh ul
di es
Ġip adala
Ġini utos
ĠNap ak
E O
ĠI CC
ĠF ire
5 9
Ġpam inta
Ġph ys
Ġmalawak ang
Ġpagb alik
urr ency
ly mp
am ental
st os
ĠNog rales
Ġ abi
Ġh ay
Ġbang ka
ic ide
Ġrel ief
ĠS r
as in
Ġd engue
Ġtul ay
Ġsum ama
ĠF ed
port able
Ġb un
Ġmat it
Ġlansang an
ag ue
Ġka al
I b
tr ato
Ġi P
b oy
G O
ĠT at
Ġna ib
Ġb ulang
ik ado
ul ation
Ġcon str
Ġl at
Ġpinag k
ĠUn it
ayun in
Ġmagd agdag
Ġl uha
uf act
Ġs qu
Ġh ot
ĠR ay
Ġbirth day
i od
om on
ĠJ udio
Ġmonth s
ĠVi etnam
ĠY ah
Ġsupl emento
r ad
Ġs kin
Ġt iw
Ġh uw
u od
Ġpagh uh
Nag p
Ġtik et
Ġp m
ab ayaan
Ġtap usin
Ġpagkak al
Ġbal bula
Ġka in
Ġsasak yang
Ġsah ig
ik ina
Ġnak asal
agd a
Ġprop ert
ĠMad alas
Ġvol unte
Ġbum isita
ĠP BA
ĠS ci
Ġak da
Ġ3 9
Ġprobl emang
Ġbin ili
ĠJ ob
Ġstor y
Ġtagal og
Ġt iy
Ġgano ong
Ġcol lege
Ġpagpup ulong
ON A
ĠM ILF
Ġ4 4
Ġmat uto
Ġc ur
ĠM ismo
Ġab ala
Ġkal ahating
ad h
ĠVic tor
Ġop syon
Ġmagag awang
ĠS ports
abang an
Ġing ay
ĠT our
Ġnas abi
Ġma ih
Ġf lo
orn ia
ar ihoh
Ġt ana
Ġnet izen
cl us
Ġmak asal
ĠPart ido
Ġstand ard
Ġng iti
Ġtul og
Ġnag ka
Ġ19 6
Ġan ang
ĠV en
res ulta
al ubong
Ġka anak
Ġd erby
Ġmam aya
ĠU SA
ĠR oy
Ġcas tor
H IN
Ġproject s
ĠPa a
Ġkinak aharap
ĠS iguro
ort hern
publ ish
ĠS ob
Ġex pl
Ġarm adong
ĠT op
Ma aaring
ih is
enn is
s l
Ġpat tern
h ain
ib at
k aya
ah ada
Ġadv an
ĠP Noy
Ġy uma
Ġser y
ĠHar ry
ĠLead er
ip ikasyon
inal iwanag
por ter
Ġyo ung
Ġtiyak in
L A
Ġa EUR
Ġdr ive
M an
i isang
Ġrekomend asyon
Ġpind utin
Ġd amb
Ġtub o
S ino
Ġsp okesman
Ġpar e
Ġnags abing
ĠFer dinand
Ġf inal
Ġag ham
ĠM emor
ust isya
ĠOri ental
ĠAb r
Ġj ack
i i
in l
Ġd uring
Ġl akad
ĠT inat
ula an
Ġbig yang
at ic
Ph ilipp
Ġt ans
ump ara
N as
Ġm ikozan
Ġisinamp a
ĠL alo
ĠKore an
Ġk apat
al leng
Ġmasas amang
ĠR ol
Ġg ayo
K ami
Ġkap as
Ġsing le
Ġemploy er
Ġa vail
Ġtr ak
Ġip aliwanag
Ġtrans aksyon
G um
ug i
c ar
Ġsp okesperson
ĠAgu irre
Ġsam e
irm ahan
Ġmur der
Ġm ic
ek an
ĠS ir
Ġext ension
in ic
Ġmang ag
c io
Ġnak ukuha
Ġpagk am
Ġnags agawa
an ueva
Ġana log
ĠGam e
ĠLor enz
Ġb all
ĠD igong
Ġh am
ĠT ON
Ġkateg orya
ing ay
if ied
duc t
Ġkab uluhan
ers ecretary
Ġnatut unan
Ġnab uo
Ġng ayo
ec e
ĠT untunin
Ġkad al
Ġstud ent
c ast
Ġb ent
âĢ ĭ
b u
ĠV ir
Ġoper ator
Ġimport ante
ling kod
ĠJ ordan
Ġlim a
ĠBl ue
Ġin tegr
ig sa
alif ornia
ĠLit rato
Ġpinakah uling
ĠJ ay
Ġpina mum
k uw
o nan
Ġcr oss
Ġsina unang
Ġpinag t
Ġkal iwang
Ġbay bay
ug ol
ĠPres yo
Ġte a
ĠBon ifacio
ĠD ag
ĠD aan
uk t
Ġkar angalan
ĠNang ang
Ġev ac
Ġmakap al
ĠCon c
ĠRom a
I Y
Ġmags anay
ĠCam arines
Ġpuw ang
H alamang
ĠC ord
Tin iyak
T E
Ġnana natiling
Ġdom estic
ĠNeg ros
Ġre v
ĠMal inaw
Ġsina sak
Ġkon str
ĠTON ITE
ĠW elfare
7 5
Ġvide os
Ġbe ach
Ġmana natili
m ak
ĠNag p
ĠEn forcement
ĠH es
Ġprot esta
p ero
Ġebid ensiya
? !
igas ig
Ġmas a
Ġtemp lo
ĠO lymp
Ġna apektuhan
ap ela
Ġbinabay aran
Ġnag na
Ġsum ulat
m ilyong
ul d
Ġpam agat
una yang
amb ag
ĠP uso
Ġnam on
agd aan
Ġtina maan
ĠBenj amin
Ġpes os
ras ya
Ġina b
Ġk ana
ĠK aramihan
tr ic
err ies
Ġkapal aran
icip al
Ġminam ahal
Ġig lesya
it ungo
ĠAnd al
Ġpagmam ay
Ġbot ante
ĠH on
Ġlar awang
Ġmart ial
ĠTh is
inig arilyo
Ġsirkul asyong
P inas
ap itan
Ġsum is
Ġipinal abas
iw alat
ort s
ĠPag p
any ag
Ġbint ana
ĠArab ia
Ġsa ya
Ġis yung
ĠVill anueva
B O
M O
ĠH uman
Ġcan cer
Ġsad yang
Ġkonstr uk
Ġb ili
ĠH ome
Ġsag utin
Ġg ym
Ġup date
inung alingan
Ġan n
Ġcel ebr
ĠB ol
ul ugang
ĠE h
ĠMakat utulong
Ġg l
ĠKap uso
Ġnasak tan
Ġal b
pl it
ang on
Ġres earch
rec ord
' .
Ġh anap
Ġsal api
Ġnai iba
j ust
p ris
Ġd igital
ĠM ataas
ĠSar ah
Ġsw im
ĠJac ob
ĠA le
umpis ka
ĠR ub
Ġnag ulat
ĠD es
Ġf r
ib it
Ġf act
ĠAl an
et isyon
Ġsin ce
Ġreh abilit
Ġnak alagay
Ġsigur adong
I K
Ġb alitang
Ġmal as
ĠNA IA
Ġkah usayan
ib ayan
Ġreg ulasyon
Ġser t
Ġtumat agal
t as
ak bay
x ia
Ġip ahayag
ut ukan
ink arihoh
. '
Ġsus i
ul ate
Ġco ver
Ġpagkaka isa
Ġrep resent
] ,
stit ut
ĠAmer ican
inabang an
Ġn ight
aya ang
Ġa v
Ġcas es
h ot
ond on
Ġpagpap ahinga
o x
Ġp ayagan
ĠH ot
Ġm ala
Ġnak arating
Ġtal ata
Ġk el
Ġlum ahok
Ġmas ayang
Ġnutr isyon
abaw asan
Ip inag
ĠKab ataan
ĠC el
ĠG ood
ĠâĢ Ŀ
pro t
edy ul
H O
Ġk usang
ĠIp ina
f ile
Ġmamam atay
ar ma
Ġl ock
it ikal
Ġbu ilding
ĠSec tion
ul ok
vin ce
Ġkat as
ĠT ok
Ġb ote
ip unang
k ah
Ġpagpap anatili
ĠI S
k ong
Ġkan ino
ub hasa
cel ona
Ġkab uhayan
Ġkum ikilos
Ġkaka iba
uku yin
ff er
us ong
t ay
ĠAbr aham
it ional
b at
k us
ĠG lobal
ĠC la
ĠT ondo
ĠL TFRB
Ġnakaka apekto
en ew
Ġk lima
ating in
Ġno o
or idad
pek to
alahan in
Ġbom b
Ġmal aya
Ġmahih ina
Ġkal ahok
ĠS erbisyo
ul ayan
ĠL ab
Ġpananag utan
Ġkin ok
ĠOc c
Ġdem on
Ġs uk
Ġnagl alakad
ĠAngel es
at u
Ġg ub
Ġlib u
Ġpal ay
Ġnah ulog
Ġpagpapag amot
Ġmat igas
Ġbin uksan
Ġitin anggi
Ġmagsis imula
iktim a
Ġrad yo
Ġposit ibo
c y
erc ise
Ġadvan ced
Ġm em
n es
ĠV er
ĠRos ario
Ġassist ance
aw anan
ah im
Ġapos tol
unt ang
Ġn urse
4 2
Ġins urance
il es
ĠNag l
ĠM er
Ð ¸
Ġnab uhay
Ġh andang
Ġresp ond
Ġpang m
Ġpil ak
uga san
Ġexper ience
Ġnas as
Ġnah aharap
Ġma ipag
Ġnagd udulot
Ġ iwasan
ĠEdu ardo
Ġgum ana
ĠAgr ic
im port
Ġes tr
à ª
akat uparan
Ġpamam aril
Ġgast usin
ĠB est
ĠSer vices
p op
Ġth rough
at ional
ĠOc tober
Ġdum arating
ĠPat uloy
ilos op
Ġcompl aint
Ġg utom
ian ce
enc es
Ġbe auty
apag kat
res h
Ġmal ayang
us ga
hang ang
tr ac
Ġg lobal
ĠQ C
U n
Ġsal amin
ac ion
Ġpagbab agong
rol yo
ap ak
b ol
as co
ag ip
Ġg arant
un to
ĠMar ikina
t and
Ġec onomic
ĠJim enez
e es
N apag
Ġpund asyon
Ġnab igyan
ĠSm art
ĠG atch
Ġna iwan
4 1
ĠIslam ic
Ġpum apasok
al aya
ĠP L
Ġpal ip
ĠP en
ĠB angk
ĠS it
ĠN iyang
u age
ĠComp any
Ġrequ ire
us ig
ĠAl amin
J uan
w eh
ĠV P
Ġm ekan
h ala
Ġin stitusyon
ab on
ĠS em
ĠCo ok
Ġkab ayo
ast ong
Ġhe art
ib re
ĠK ons
Ġd ipl
ĠC alifornia
ĠGan ito
Ġw el
Ġfil ter
ĠSin us
Ġdo uble
h anap
ident al
Ġpinap ayagan
Ġpar es
ana r
Ġal ready
Ġnana natili
Ġst ags
Ġg obernador
alita an
ara os
Ġgu est
Mag ing
Ġkid nap
j i
C H
b ik
P atay
Ġpananak it
Ġb lood
or r
D ito
est ion
ĠJo ey
M ad
m ark
ĠS her
Ġlider ato
Ġp insan
pl an
iv en
ĠS amantala
dic ial
Ġpangang anak
Ġitinak da
Ġta asan
ĠF inan
Ġman y
uk ay
Ġsum asang
ĠCC TV
Ġmak agawa
l us
Ġh oliday
Ġreg ional
enz uela
u ate
Ġp iling
ĠPres s
Ġsist emang
Ġcusto ms
Ġkam alayan
Ġpak ete
olog ical
k oles
Ġlih am
Ġbin ibigyan
ob le
ĠFran k
d om
Ñ ĭ
Ġper iod
ĠB ook
Ġob liga
p io
Ġc a
p ansin
Ġkat otohanang
Ġsup lay
il ahok
om ang
ff ee
Ġch ange
ĠEn ergy
Ġinc re
ĠMach ine
ab asan
ot al
Ġpagtat asa
Ġepis ode
ud it
m ission
ĠM erc
ter m
Ġ awa
ĠP i
Ġtr ack
Ġok asyon
K ap
il inis
ĠTr ial
ĠS un
uk ot
Ġmang ingisda
Ġs ind
at ar
ak ibat
ung us
ĠK h
ins k
g ot
Ġan ya
inaw akan
Ġnagp adala
Ġmotor ista
ip ensa
alat ang
Ġcom mit
rer es
Ġnat atakot
May roong
Ġpagpapat uloy
Ġkom pl
Ġlik uran
ĠA h
Ġmass age
f ilo
ah anga
Ġ4 8
s abay
ĠF re
Ġman onood
Ġkapas idad
ĠH om
Ġmagk apatid
os yal
ĠT ipan
ĠDec ember
Ġes c
mer cial
uwel do
ĠWin dow
Ġpat unayan
un l
ĠN or
z u
ĠF ront
Ġex tra
Ġpaglil igtas
ĠE j
ilit ang
ik ain
Ġnatut ulog
Ġadministr asyong
Ġip a
asa ilalim
co ver
Ġakus ado
c c
ĠA aron
z ing
Ġna roon
ac her
ĠB ahay
ĠCh risto
uc risto
Ġtin iyak
Ġhinih ingi
P in
ĠLe ila
Ġkumpl etong
al ya
ĠP o
Ġmas is
Ġ2 000
ekt adong
pr ub
Ġn om
ili a
T ingnan
ip o
ĠBit coin
k ay
ag yan
Ġe ye
Ġac tion
Ġnal al
Ġbag ama
ĠP lay
Ġt alaan
Ġh uh
ip i
s alin
Ġco urse
Ġl uya
Ġpero xide
ĠRe view
il at
ĠBar celona
ĠI yan
Ġstat us
Ġcond ition
Ġtak ip
ĠU K
Ġman iwala
b og
ĠR em
Ġp inoy
Ġv is
ĠSa ul
ly n
ĠTha iland
ĠPan filo
Ġm undong
ĠT ila
Ġnagp asya
Ġpamam ahagi
Ġnags us
ĠKa ilangang
Ġpagb agsak
ĠN ations
Ġpang anay
Ġkag abi
Ġh aharap
Ġnar anasan
Ġkom isyon
Ġwh ite
Ġpin up
ĠCor ona
ekl arang
Ġpres ent
Ġnagd ala
Ġmab agal
alik od
Ġsal aysay
Ġorgan ization
te xt
Ġbro ad
Ġpinamum unuan
ĠCommun ications
pap awid
ĠM id
Ġmalam bot
ĠH IV
Ġsin undan
ĠEnter tainment
Ġ ir
ĠM il
ibers aryo
c s
os ter
ag amot
ĠA mp
ĠM ateo
Ġ er
Ġpagk uk
Ġmot ibo
K ay
Ġ alaga
ĠG ov
bas ed
Ġqu arter
anganak an
ay aran
is er
Ġappoint ment
ĠT ay
Ġhal l
Ġju ice
Ġcom ment
Ġpangung usap
ang ay
ik ip
Ġpal ibot
ĠI ra
Ġpanl ipunan
Ġmand ur
Ġm inister
as awang
Ġdum ipensa
Ġcomp et
ĠM od
ĠM arian
Ġw al
Ġtum pak
ĠI N
ĠPagk apribado
ĠGatch alian
ap p
va xia
Ĥ ¬
Ġmon itor
b alik
int ong
ĠMiyer koles
Ġnagpapah intulot
Ġmun isip
Ġpl ant
Ġesp asyo
Ġpara ang
iyan ismo
Ġhumih ingi
ĠS SS
ub ig
Ġkalim utan
t ers
ĠT imbang
ĠPilip inong
O ng
ĠM un
Ġmalag as
ĠN ah
ĠJes ucristo
ĠBas ta
Ġnau unawaan
ere z
ĠAssist ant
os ed
ĠN ot
ir ing
eng vaxia
Ġbak la
f ace
s abi
ĠP lan
ĠSa an
Ġpagpapat akbo
Ġsiy ent
Ġperform ance
D ep
il ar
ans iya
Ġkap anahunan
Ġas ukal
m od
ĠC a
Ġal egasyon
Ġpinag p
ash ion
at anggap
abet es
k ey
ĠL et
abay aran
et her
Ġpinakam ab
ĠG overnor
ĠSU MM
Ġk esa
an umbalik
Ġlead ers
ĠSel eksyon
Ġnapak alaking
Ġchan nel
in os
ĠN FA
ĠVal enzuela
ga m
Ġg ive
ag umpay
Ġsol ong
Ġfinan cial
Ġtana win
Ġga anong
Ġmas igasig
ĠIsab ela
b aka
ĠIn dia
u ce
ah anda
ug ong
Ġko py
S alamat
ĠC lass
Ġnak akatulong
Ġcirc les
Ġmak itang
Ġres ort
Ġnagd adala
Ġar g
Ġpress ure
ĠS ilangan
Ġmagd ala
ĠN BA
Ġnagk aka
Ġk ul
Ġpalip aran
ĠM O
ĠD ibdib
Ġpamum uhunan
ĠSUMM IT
il og
Ġpr aktikal
Ġteles erye
Ġc amp
ĠVic ente
Ġkinas uhan
Ġunit s
ĠImm igration
Ġay os
bi e
ĠNag t
ĠM c
ĠL ee
Ġta unang
Ġkap anganakan
ĠH ari
ĠF und
Ġnapat unayan
Ġb ahala
er ator
ag is
iv ate
um ing
ĠSt ates
Ġdes ign
ula anan
Ġstor e
Ġpan untunan
ump isa
h anda
Ġnangg aling
Ġs ine
ĠM ont
ic les
ĠN inoy
ĠF ort
C or
ĠS uri
Ġpagpap ak
ĠTom as
K am
K abuuang
Ġat leta
I B
ĠA C
Ġmakasal anan
Ġth read
Ġbus y
m ula
Ġcert ificate
Ġc laim
ar ed
Ġh ustisya
ĠM inister
uh at
ĠI f
ĠEng lish
Ġimporm asyong
Ġd alang
ik ulo
Ġmak ad
Ġpagk alat
Ġpet rolyo
Ġkopy ahin
Ġd z
ĠYah weh
ĠL RT
Ġtr ade
en joy
Ġnap ili
Ġika apat
Ġlimit ado
ĠD uque
ĠU s
Ġpagl alagay
Ġdis ipl
atag puan
ĠWord Press
ĠN ana
Ġpagk ap
Ġe ar
Ġc ab
Ġtin anggal
yo nar
Ġmana na
em pl
Ġart ist
Ñ Ĥ
ig ure
ĠChristo p
p ose
ff ic
Ġs ee
ie ve
Ġpinaniniwala an
Ġmar k
K uko
e o
ĠS iyang
Ġakt wal
Ġpr im
Ġinal is
ut ers
Ġlum ago
end ors
at ub
Ġat a
ĠL in
Ġmagn itude
ĠKon stitusyon
Ġpagsas alita
Ġcar bon
ĠF r
Ġnatat anggap
Ġnag daang
ay ahan
Ġth er
as ura
ĠGr and
g inkarihoh
im an
Ġnal alapit
b agay
Ġ ur
Ġcom e
isy unal
al imbawa
Ġum p
ĠI P
Ġnai intindihan
Ġsusp ect
ĠA P
Ġpap untang
Ġtab ak
ĠS ara
ĠT el
Ġp ung
alam in
. âĢĻ
ĠW estern
ĠSp okesperson
Ġbre ed
Gina wa
ĠS ch
ĠEsp anyol
sc ar
Ã± a
mon te
wer te
S up
ĠW il
Ġg raft
aa aa
ĠK uya
Ġpro g
Ġhum arap
Ġkab anata
ĠL i
f ree
ĠM awalan
Ġim in
ĠJan uary
Ġd ed
Ġnagb ub
!!!! !!!
ĠEmploy ment
Ġl if
Ġpang inoon
ĠIn il
Ġl agay
Ġpagsis imula
Ġbom ba
I k
Ġd en
Ġpum anaw
che ck
Ġsang libutan
Ġconc ert
He alth
ĠMart ial
Ġany os
ubay bay
Ġnag trabaho
ay aman
ik syon
uw ay
Ġnaa angkop
uri ang
ol oko
Ġco uld
Ġvers ion
Ġdona syon
Ġmagk at
f ect
ar usahan
Ġina prub
own load
Ġbih ag
l ink
Ġnagt ungo
ag anda
ĠI ran
Ġme as
ĠC es
S ana
ĠE U
Ġadvert ising
4 3
ĠNav y
Ġsa fety
ah ulugang
ero us
ĠN oy
Ġtrad isyon
Ġf our
Ġbag amat
H anggang
ĠBel lo
Ġrelihiyos ong
Ġim m
Ġdis trito
uman hin
Ġar alin
Ġel eksiyon
Ġbul sa
Ġpaglul uto
ĠOcc idental
T o
Ġgirl friend
Ġh it
Ġkas inungalingan
rek lamo
l ig
ita in
ĠO il
Ġw atch
Ġpul itiko
Ġpagbab awas
Ġs esyon
ĠN CR
Ġe to
ĠM ong
Ġe ver
In il
w alang
Ġ error
Ġan ibersaryo
Ġsir ain
Ġ ....
ĠR on
ĠRam oso
ĠIra q
er yo
Ġmag anap
ro wn
Ġpagt ugon
C o
ĠJ uli
Ġol iba
Ġpagt anggal
Ġhour s
P WH
Ġne ver
Ġpagm amaneho
Ġt ob
Ġnil inaw
Ġmat andang
iver os
alo u
iwas ang
Ġpum ayag
Ġmagd adala
Ġpagtit ipon
Ġk ind
Ġmult i
ĠP ap
Ġas awang
Ġpol icy
K O
Ġb ida
p inde
ã Ĥ
Ġl olo
ĠG awin
ĠD atapuwa
ĠâĢ Ļ
Ġkr itiko
Ġb inaw
d ep
ust in
Ġb ad
Ġnana wagan
Ġnakik itang
Ġth ank
Ġnakar anas
Ġkus ina
is hing
Ġkat ayuan
ĠKrist iyanismo
Ġr os
Ġag rik
Ġc op
ain it
Ġle ast
H ow
U M
Ġind ep
Ġbrief ing
erc ito
igur ado
w i
Ġab iso
Ġmapag k
aran ce
Ġal ing
Ġconstr uction
ik s
ar yong
Ġmandur ugas
Ġpl ate
Ġmakik ipag
ĠFed eration
Ġsh are
Ġg ulo
angk ang
Ina min
abaw i
ab ok
ed ya
Ġmap an
ene o
pag anda
Ġsch edule
um ikap
s ob
Ġm ant
ak es
Ġmak asama
he ast
Ġhil agang
Ġag arang
r s
and um
ik i
im ok
ch er
ĠSout hern
ĠCh urch
b r
p ok
lo ok
ĠD alawang
er es
Ġpum ap
Philipp ine
Ġres olution
ĠUnd ersecretary
ingg oy
Ġlib og
Ġ15 0
ĠS iyempre
ory asis
Ġatt ack
Ġala ala
ĠM unt
uw erte
Ġkah inaan
ĠEx press
ĠN ad
Ġinil unsad
alak an
Ġkap itan
Ġac ne
Ġlik ido
Ġk aba
ĠT erm
ĠGonz ales
ah aha
th an
Ġdam ing
Ġsuport ado
ĠS ina
Ġdal aw
n on
Ġtum ama
Ġkn p
ĠBr it
Ġs u
ana que
rim inal
Ġg round
Ġtum anggi
Ġtang hali
Ġnakak al
tr ina
anal an
Ñ Ģ
Ġk uno
Ġc re
ed om
is iya
ĠNag bibigay
Ġsm ugg
par eho
Ġdeb ate
Ġpamil ihan
Ġpro vincial
Ġcol lec
Ġrecord ing
p re
Ġs plit
at ulan
Ġmagl aro
f ort
Ġkas ulatan
Ġ200 3
ig uez
Ġf ar
Ġd ag
ĠC ha
Ġnagt apos
Ġmam um
bab ago
C E
ĠO scar
Ġpl under
Ġnab igo
Ġpoint s
Ġdi os
ilangan in
Ġma ayo
Ġpangk araniwang
ĠU p
re to
ĠW ire
ĠB re
ĠGr ade
Ġsamp le
en ue
9 6
am utan
r ito
i ot
Ġkab al
Ġcit izen
ul ag
P as
Ġnakasal alay
Ġal ert
ĠA R
Ġnas is
Ġexp ert
Ġin cl
Ġam on
Ñ ģ
ch es
ident eng
ĠRob ert
at ors
ĠO s
Ġt inal
Ġpagka ing
Ġequ ipment
ĠAc adem
ĠV it
Ġhal igi
asak ay
Ġmamb abasa
l ot
Ġbuk id
ĠKap amilya
ĠH ud
ĠSuri gao
tra ight
Ġka akit
ĠEj ercito
G ayunpaman
ug tong
ĠKa utusan
ĠPac ific
ĠPC SO
ĠIn s
Ġlo w
ĠG reg
Ġap ektadong
Ġcor ruption
ĠNak ak
Ġb asa
stitut ional
ã ģ
Ġb ula
ĠD engvaxia
M ateo
alan ang
Ġbin hi
ĠL os
u ugnay
Ġap o
ĠFernan dez
ind ig
ĠN orthern
Ġak tibo
Ġnagp ak
Ġpagg alaw
Ġcandid ate
is ed
âĢ ¢
alim a
ar eho
ĠT anong
aril in
Ġnagmum ula
c ut
ĠL ondon
Ġv isit
Ġtawag in
Ġklin ika
Ġpro m
B G
ĠA te
Ġv eh
Ġpanana uli
Ġnagna nais
Ġmal ul
Ġhawak an
ĠDom ingo
ent uhan
ĠK wento
las e
Ġpan itikan
Ġtut ulong
Ġm uch
p ons
Ġ4 2
Ġad ult
Ġnakakapag salita
ĠAgric ulture
Ġk is
te o
az ar
p ret
ĠD am
Ġre lease
res yon
Ġnagt uturo
Ġpaki alam
Ġmagh intay
ĠFor um
re ens
Ġkas abihan
ily ar
5 8
Ġfec es
Mag ug
Ġv ari
Ġh ig
igt ing
ĠTa ong
Ġsimb olo
Ġ ident
Ġf an
Ġpab ahay
ecut or
le ar
ĠO verseas
ĠPAG ASA
Ġhin inga
ard a
** *
Ġnagpap as
or gan
us ok
ĠU l
Ġb enta
z man
ĠS ansinukob
ĠT alagang
Ġtest igo
Ġin ilipat
Ġme an
ĠCo ast
ĠM ich
ĠN aka
ateg orya
ĠM s
Ġnagl alaro
ĠM all
ĠGab ri
Ġtr ain
ĠBel monte
ĠTe od
Ġkab is
Ġnakap aloob
Ġprobins iya
Ġkal igayahan
Ġas k
e f
Ġpinak ama
ik ipag
ĠN am
Ġkr itikal
Ġint elligence
Ġkan luran
Ip inaliwanag
char ge
Ġb inigay
on tra
Ġnakak ulong
Ġ ugnayan
' ,
Ġpagt atag
sam oro
ĠOffic er
Ġh ubad
eld on
ĠTr ade
at ibo
S t
ĠW as
Ġgr aph
ise um
ĠGeor ge
Ġump isa
Ġnaga wang
ĠKomun ista
ib aka
ĠF eb
Ġdemok rasya
Ġsun ud
Ġindustr y
Ġ200 5
Ġt ukuyin
U P
l aro
ig aya
igay ang
Ġnakaka alam
ĠS ilang
ĠL unas
ĠAy aw
' re
il ty
ĠPar anaque
Ġk alang
gr ade
Nag t
Ġtit ik
Ġhap py
abang on
p in
Ġt alak
Ġc ryp
ulat or
ist an
ĠY aong
it in
ab ili
Ġitina yo
Ġs oryasis
Ġpinag d
ib ol
Ġg ant
Ġmam ah
con f
Kas i
ĠY un
Ġbar ya
Ġnagbab ago
Ġg al
Ġl ess
Ġwork ing
osit ibo
Kin umpirma
ju ana
D alawang
m el
ĠAk lat
Ġpw ersa
Ġimpek syon
Ġng alan
oly ar
Ġte or
Ġpap er
al awak
Ġtr ah
Ġas ul
ĠAnd res
h ouse
end ed
Ġipag patuloy
i alam
l ines
Ġ use
Ġsh ip
al ot
ast igo
Ġid agdag
Ġnagtatag lay
M L
Ġf yt
Ġkat arungan
Ð ½
Ġkan d
es h
Ġpat as
Ġtum ugon
Ġhang arin
ĠC rame
3 00
ol k
Ġka akibat
Ġdi esel
F or
Ġg uw
Ġp it
Ġpagpap ahalaga
Ġpres o
Ġbalan se
Ġspec ies
Ġg inang
lam ig
ĠEr n
ya an
Ġmat ulog
Ġs uh
ub uti
Ġpl us
l ip
Ġa uthor
5 6
ol ate
Ġnatit ira
Ġk m
ĠW hat
Ġth reat
Ġpal apag
Ġnan onood
ag utan
Ġr ally
Ġum upo
Ġinis yal
p ri
Ġmah uh
I f
Ġb ady
Ġnakak akuha
Ġpan imulang
Ġdec ision
ĠSept ember
Ġtr y
Ġsin ubukan
Ġsak sak
Ġkabig uan
G en
a abuso
k ap
Ġsin omang
Ġpet ition
ĠC in
Ġkak ilala
k w
Ġebid ensya
ĠJ a
Ġsenator ial
el ang
Ġfeel ing
olog ist
Ġbag kus
Ġnagl abas
ahat ulan
Ġg ulong
Ġpund amental
impl uw
B M
ol s
ĠB ir
Ġkag alakan
Ġsang ay
Ġ4 6
Ġsibil yan
ĠM ind
ĠB oh
angguni ang
Ġib inab
Ġkas ab
Ġ4 00
Ġbay arin
Ġwin dow
eral d
ĠPro f
Ġmin eral
Ġkadal asan
na b
Ġpunt ong
Ġcit izens
ĠK ayo
Ġhuk uman
et eng
ĠN D
Ġfor ce
Ġmagt anong
It in
= "
Ġmang h
Ġlupa ing
ol anda
Ġsens it
ĠR ong
iy erno
Ġmax imum
Ġpagtat rabaho
ng i
ĠAnd anar
Ġcan not
P aras
Ġm emor
Matat andaan
Ġman ufact
Ġpol itiko
ĠBang samoro
Ġkas osyo
Ġpass word
ĠJ ack
ĠAmer ica
he k
Ġh ope
ĠL ou
ĠPar is
Ġnat ion
Ġac ting
EN R
Ġtinag uriang
B L
w ide
and y
Ġsar iwang
umb ong
ĠP S
amp u
sy ch
bre ak
Ġkat apatan
ĠG aano
M E
it al
Ġare as
ĠJud ge
ĠK id
Ġprob isyon
uro k
Ġmah istrado
Ġsc ore
ĠC B
istr ation
ĠFa eldon
ult urang
Ġmagb ago
Ġlit ro
pl es
Ġmakat utulong
Ġpe nal
ing er
ue v
Ġmagk akas
ĠD agdag
sa a
Ġpersonal idad
Ġut ility
Ġmakab uo
Ġalb um
ag uyod
Ġpl ace
Ġpamp ulit
Ġdown load
ul igsa
ĠD V
Ġy unit
Ġmags uot
Ġsin ong
Ġbum oto
ĠAl as
Ġpos ition
Ġ iwan
ul uyan
Ġre ad
ĠR ena
Ġtick et
ays ayang
atak da
Ġmad e
Ġcon v
Ġn ong
ĠTim og
Ġsing er
apa ap
ĠLib eral
Ġna yon
ĠF estival
Ġdemon yo
ubl ika
Ġr enew
Ġdep art
Ar royo
G an
Ġhist ory
ĠD et
Ġnap unta
Ġtr abah
Ġs uweldo
Ġmagl agay
G B
Ġn uong
Ġnau ugnay
Ġprov ider
z o
ens or
Ġmagp akita
Ġmatag puan
Ġi isa
ĠGu zman
K aramihan
Ġm abait
iy era
Ġpagpap abuti
Ġbat erya
9 8
Ġplay ers
t ad
Ġre porter
ĠP erez
un ian
ĠCon ference
ĠR ail
Ġdis play
oci ety
ĠBab ilon
uk lam
Ġsuppl ier
ĠA ugust
Ġpang ulong
Ġmagk abilang
Ġpagg alang
Ġm ans
Ġkas intahan
ĠBas ilan
G amit
inas ura
ĠL ar
Ġits ura
Ġl amp
Ġisina sa
un idad
er ve
atag an
pas te
inl upa
is anan
do on
Ġtag ahanga
angk at
ayag ang
Ġhost ing
is to
Ġipag b
al ity
Ġpum ayat
Ġpamp as
Ġnaa ayon
Ġc ongress
Ġlum ipas
Ġkad iliman
ĠCl ub
P inak
] .
Ġc risis
alam atan
Ġnah ihirapan
Ġen han
Ġfriend s
l u
Ġal apaap
ĠWh ite
ĠD SWD
Ġtat awag
alam pas
ĠC R
Ġc rew
Ġt igil
uck y
ah eng
ĠT atlong
Ġnagt it
Ġg ayunpaman
ĠLo ve
B ut
Ġtest imon
ĠMe dia
ul y
ĠM am
ĠR ome
Ġna natili
AN O
Ġpup py
Ġf air
Ġkat ibayan
PA T
Ġf irm
Ġapl ik
Ġ5 5
Ġklas eng
ĠRom ano
Ġpagt awag
ĠTagapag ligtas
n ed
Ġ ihinto
ar aya
Ġga bing
Ġsum akay
Ġsp eed
Ġmas uri
Ġp anoorin
Ġp ahinang
ĠH y
Ġil abas
Ġkin ik
Ġbaybay in
ĠR iver
itna an
Ġgroup s
id ge
T inat
Ġpangang asiwa
EN T
ĠNagpap akita
ap lay
Ġk uts
Ġ200 2
is adong
7 6
E x
ch et
Ġproduc ts
Ġpagb awi
Ġpagkab uhay
g t
Ġd ensity
Ġsi gaw
ĠGina wa
ur in
Ġty pe
ĠP ati
ĠT y
ĠAcadem y
S ak
Ġmal ay
Ġtit ulo
Ġseks wal
ad ang
ent ial
Ġtrad isyunal
Ġkaal yado
Ġnam amatay
Ġed ucation
Pag gamot
Ġinvest ment
Ġsex y
ag os
Ġ )
Ġin come
Ġ yang
Ġp ast
intay in
Ġ ?
iona ry
Ġm esa
aw asak
ĠCom munity
Ġwh y
Ġj an
ĠProt ection
angg unian
ĠC ana
Ġit uloy
m ate
Ġmapag m
Ġsent im
pl ant
H alos
Ġpr ior
na nakaw
Ġmakak aya
Ġpis ngi
b ag
pol itan
Ġpagp op
Ġst age
Ġb oss
ing atan
Ġl alagyan
umb a
Ġp ipili
Ġj uris
s iya
y unan
ĠW ell
Nag l
Ġmananal iksik
Ġmer ong
Ġlum aban
ĠJapan ese
Ġmagp ak
h ay
bo x
ĠB udget
Ġmari juana
, '
v ious
Ġc able
Ġcon n
Ġant ib
Ġpakik itungo
Ġcomm ander
Ġavail able
om b
en ed
Ġpagsas aliksik
Ġkomp y
Ġh inat
Ġkat a
angg ing
ĠDrug s
ĠCh an
Ġdat ap
hah anda
ĠP uno
ĠB ak
Ġitina as
Ġre aksiyon
Ġtal ent
ĠICC C
Ġek onom
ont iveros
on ia
Ġal it
ĠAre a
Ġm ungkahi
ak ilang
Ġpagkas ira
amp anya
areh istro
Ġp ino
Ġul tr
Ġmagp as
Ġmal utas
W WA
Ġg ate
ie go
us k
ok er
Ġimbestiga han
ĠG ent
ulat ory
Ġbak una
Ġinaprub ahan
Binig yang
W h
ĠSt at
pro mote
t ulad
Ġt ips
ahang ad
ga bi
erat in
ĠOper ations
k ol
ĠH ol
land s
Ġdalag ita
Ġt able
dr aw
im ina
Ġtum ataas
Ġsenador a
Ġmat amis
Ġbuwan ang
Ġnagh ain
Ġdep osito
ĠC ont
ĠNag k
ung aling
O D
man eho
Ġjeep ney
Ġt uhod
Ġrel ations
Ġnag resulta
In i
Ġlag as
Ġdisipl ina
Ġg e
Ġf rame
Ġpagbab arilin
ĠManag er
Ġhar ina
r yo
ah iwatig
Ġg ro
Ġal alahanin
Ġd olyar
ĠA gad
Ġbin ibigay
RA IN
ĠP ahayag
Ġil alagay
ungk utan
Ġbat h
ru ary
ĠPan l
Ġcr ime
Ġtoena il
Ġtal ah
ys he
Ng ayong
ĠM om
ĠC ant
ug ay
Ġout put
Ġnagmam ahal
Ġtalam ak
Ġmas iguro
Ġah as
id ed
ĠJ av
Ġmagt atag
Ġe y
Ġip am
inal do
Ġnagb abayad
Ġnagkas ala
Ġh atol
lam ong
Ip ina
ĠM obile
ĠN E
Ġit uturing
h ahanap
al and
om ar
Ġcl ose
ay usan
ĠS us
ari es
Ġpinag bab
Ġt ol
ĠEle azar
H akbang
ĠI T
ĠMar c
Ġbaw asan
âĢ¦ ..
ond isyon
Ġsc reens
ĠL aro
ĠTs ino
Ġpag amutan
Ġf itness
Ġal on
ĠPa olo
ĠEv angel
Ġw astong
ĠR A
Ġsig arilyo
Ġkin umpirma
at ras
Ġcom pound
Ġl ic
Ġsec tor
ĠKum uha
ĠMed yo
Ġp ilosop
Ġb antay
ĠE mp
con vert
ĠMunt inlupa
Ġnag agawa
ano d
Pag l
Ġmap igilan
Ġsinus unod
Ġplan ta
Ġkomp osisyon
areh ong
re z
Ġpagna nais
ĠB OC
Ġmah uli
Ġmap ak
eb re
Ġmah alin
ah alan
Ġpinakam agandang
ĠDis aster
Ġs uc
Ġpam as
Ġsub ject
Ġka ibig
Ġcom mercial
ri er
Ġdok trina
Ġtit le
Ġs ira
Ġin irek
Ġex ercise
w atan
Ġk und
Ġgan yang
ĠAb ella
Ġbut ton
Ġpananal ita
Ġass et
ĠJen ny
ĠWindow s
Ġpa uwi
ĠH ontiveros
Ġgumag anap
ĠP u
Ġsmart phone
ĠL akas
me di
Ġdamb ana
Ġmom my
av or
papat uloy
ĠPr os
Ġle ave
ĠSy ria
Ġnagpapah iwatig
ĠAt eneo
Ġpagt utol
Ġtawag an
6 6
Ġpan inigarilyo
Ġl iwat
Ġlum ilitaw
ĠDO LE
Ġtechn ical
en ang
ĠNoy noy
rot ektahan
Ġ200 1
l ia
Ġgum agalaw
Ġs uch
Ġagrik ultura
ĠâĢ ¢
Ġs ong
Ġb iro
Ġpap utok
Ġcomm ission
asaluku yang
R I
ĠJ u
5 1
Ġin ilaan
Ġmat akot
Ġinil arawan
at uan
Ġb ise
Ġdet erm
ĠB et
ur sing
alat hala
ĠSimb ahang
Ġp orn
Ġf o
Ġdr ama
ed it
Ġpropert y
ĠT ito
Ġp ick
Ġas p
Ġst ick
PA G
ĠSci ence
k um
r ain
Ġisin usulong
ĠDo on
s ub
v y
Ġw here
Ġnap upunta
ĠGu ard
Ġpinans iyal
or io
?? ?
ĠM ex
ĠM inistr
et ic
,, ,
ĠP ayo
Ġinil apat
l en
Ġd ate
ĠIt in
Ġnakat ulong
ID G
Ġet c
ĠD ennis
am asa
Ġr at
Ġpagt anggi
Ġdo es
ĠB ranch
Ġcle an
Ġb ib
Ġnarar anasan
ĠSit io
Ġ ens
a ak
ip igil
et ang
Ġmar ka
Ġtal k
eng a
ĠSal igang
ĠNangang ahulugan
] [
ĠL y
Ġreh im
ĠC oco
ena n
ach ers
uns iyo
Ġn de
ilit ies
Ġoperat iba
Ġdipl om
Ġm n
Ġb ibl
Ġlo ad
Ġd ilaw
or ary
ĠPro ject
Ġhydro gen
ĠJ inggoy
ĠTh at
Ġkalag itnaan
Ġinv ol
up ig
Ġsy n
ĠAle j
ac hing
Ġbilang g
ĠAre na
Ġmat ataas
oc rat
ĠTeod oro
us ad
Ġnag ustuhan
Ġmat indi
Ġag reement
h igh
Ġch alleng
P ana
na sa
ĠE mbass
ĠF P
ĠTa x
Ġjuris dic
Ġt otal
ĠL ight
Pag pap
Ġnad akip
Ġf ranch
bay anan
p ung
th ing
ĠPang alan
n il
r ate
Ġcons ult
ĠM abilis
Ġmaram daman
Ġmod el
Ġper ang
Ġdep artment
Ġt ay
ĠF ree
eh al
ĠEn vironment
Ġfund s
Ġpagpap ala
Ġg old
Ġc ast
ĠG re
Ġt up
ist ic
iyak an
Ġakus asyon
ap ing
ĠPag gamit
ĠIn formation
b ak
Ġl igaw
ĠT ama
ĠL ady
Ġpig ilan
Ġmat alino
Ġpr act
ely n
Ġherb s
ĠS pr
Ġkaw alang
ĠL oc
Ġkump leto
Ġimb it
Ġtut a
Ġnang ing
Ġcl ub
ĠAll ah
Ġk ulturang
ĠB ud
Ġag ent
ĠGr ab
Ġkaka ilanganin
ĠCes ar
Ġitin uro
Ġnad iskubre
ĠLeg arda
alik an
ala ala
ilit is
Ġtod ay
Ġdi abetes
Ġinat asan
eng ke
ĠP unong
Ġj ud
di um
ih ag
Ġib ina
Ġmakat uwid
Ġm ik
ĠS W
ans es
iw aan
ĠRodr iguez
N ah
i ilaw
Ġr ules
Ġkal apit
Ġpagt akbo
at awan
Ġ4 3
Ġpinakam at
Ġteror ismo
ilin lang
Ġrequ est
id era
ist ics
ĠEmbass y
Ġpang it
ĠS angguniang
uw estiyon
Ġdetal yadong
Ġhuk om
Ġlap top
Ġmagpakailan man
H ome
da anan
s al
ĠS agot
ĠT zu
Ġnagpap asalamat
ĠGam ot
ĠBabilon ia
h ap
A g
ĠMa x
Ġnet izens
Ġw at
angk utan
Ġnagd ad
O FW
b and
ĠPamb ansang
Ġmakapag p
ag sa
ï¿½ï¿½ ï¿½ï¿½
Com elec
p m
r oso
Ġf a
y er
ĠRe form
Ġtans o
Ġsam bayanan
Ġpar ir
Ġf lash
Ġpint ura
im ento
Ġelement arya
it as
Ġan it
uro g
7 7
Ġh iw
em ic
Ġpags uporta
ist ulang
ukt ura
at ian
Ġscreens hot
ĠM oro
ĠOrgan ization
H E
am t
ĠS T
Ġc osmet
ĠU r
Ġmagh anda
Ġg alaw
Ġ que
Ġ7 5
ĠMana lo
Ġang g
Ġkab analan
Ġkom ers
8 00
n ie
ĠS or
ĠC le
Ġmas abi
atan im
Ġnand ito
Ġd ang
Ġf ast
ĠR ap
Ġelektr on
ĠS PO
Ġpagkak ab
Nana wagan
ĠT iyak
ĠSam uel
ĠD A
Ġpang aral
ĠAfr ica
c ion
ĠK ast
ch o
Ġpam ilyar
Ġmal ungkot
Ġt ito
rip tion
h let
ay in
Ġkum ukuha
Ġlo an
Ġback ground
Ġp ump
Ġcomp an
er ba
ĠF ungus
angy ari
Ġs or
ĠR ic
Ġpagp roseso
as ag
eb ang
ection s
Ġpapel es
ĠA wit
Ġpa umanhin
iv ol
Ġs oc
ar ga
Ġlib ingan
inar ya
Ġd ira
Ġpina pat
ha i
Ġpak inggan
ĠB ilib
Ġre bound
eld eng
oc a
Ġoff er
P ro
Ġb ok
Ġlab ag
Ġpagd ad
Ġnakat akda
ĠSout heast
is lat
Ġat ake
Ġimp ro
ĠEsp anya
ij ing
Ġevac uation
Ġnak unan
che z
Ġbady et
Ġs traight
Ġl ilitaw
Ġpagl aki
Ġdes k
ĠG a
qu ir
net ic
ga na
Ġpagsis iyasat
ab s
Ġpinak as
ĠP ope
ik ato
ĠH erb
H alimbawa
U NG
uk tot
ĠKay sa
Ġkam bing
Ġdro p
Ġmus ic
Ġtr ust
ĠMat agal
Ġvac c
adh ana
Ġshop ping
ec ution
i us
Ġat ensyon
atag alang
ag awan
ĠA N
ilip as
ĠRes ources
Ġm ama
Ġhiling in
Ġd ula
ch en
Ġop ort
Ġl unsod
ĠC D
Ġor ig
Ġspe ech
amp le
Ġp apatay
Ġf ake
ĠG ayon
Ġaw tor
s us
ar us
ĠM GA
om ba
Kay sa
ag u
te nance
Ġpagna nakaw
E n
Ġen joy
Ġus ok
Ġ alagang
Ġaplik ante
ĠBoh ol
Ġpagb aha
ĠFilip inos
ng ang
re as
Ġma ibigay
Ġg ar
Ġmak inis
Ġkum uk
Ġnah ih
aham ak
Ġr ape
Ġco ol
Ġorgan iz
Ġlip i
Ġtiw aling
Ġinih anda
andal uyong
ur ora
ar at
ĠB IR
ins ang
hih ina
Ġkahih inatnan
ĠAd d
9 5
ab ata
Ġh inal
ile en
Ġnam i
ĠMar ahil
Ġdest inasyon
Ġw itness
Ġdi rect
Ġres peto
Ġ6 5
sh op
Ġdeg ree
Ġipina m
Ġpagsus ulat
D T
sis imula
Ġpagsasa ayos
Ġp utok
Ġform ula
Ġac com
ĠJona than
S ina
up ok
ĠH im
ĠO ro
Ġbilang go
ĠY ap
ĠY ear
Bag aman
ĠG ng
Ġit ago
Ġt u
ia z
Ġparang al
int ulad
ar ili
d ahan
ineb enta
Ġkonstruk siyon
ĠN al
ism is
Ġmak uk
ag aan
Ġpagkak ap
Ġsana y
ĠLib reng
ĠK r
ĠH ow
Ġkalang itan
to hanan
Ġmag inh
Ġpagpap alaganap
Ġkw entong
Ġsimb ahang
ri x
ĠMak ikita
Ġ unt
Ġs osyal
Ġib inal
Ġmak ulayan
Ġib an
ĠA pos
Ġis ulat
ĠL ord
Ġmak araan
Ġkor ap
k ula
ch at
g ang
Ġnak ilalang
Ġpat ut
Is in
Ġactiv ities
Ġco unt
d aw
Ġh ag
ina te
Ġnan doon
ĠTechn ology
ub aya
Ġmak umpleto
ĠSh ow
aks ihan
ĠF e
Ġj ournal
Ġch em
ĠPagd ating
ĠCath olic
Ġed itor
as ik
ip olo
ĠH ap
Ġag e
ran e
uwal hati
Ġpray oridad
is c
T here
y ahan
Ġg iyera
Ġtagap am
is yu
Ġe gg
Ġpagb abahagi
Ġen vironment
Ġmater ials
ekl ar
ĠK ras
hon y
p uang
Ġmagag anap
un y
ĠMemor ial
t witter
ĠT am
Ġina bot
imp ormasyon
Ġt saa
ib bon
ump ungan
Ġshe et
D o
Ġal ways
Ġpinas ok
DO H
Ġcal ories
c ol
rup t
f ire
Ġd ue
ĠGerman y
Ġmai iwasan
p ed
ĠC ivil
ent ly
oro onan
ĠGamit in
ast angan
Ġmak ah
ĠMind oro
Ġtalah anayan
ĠD ing
Ġpagpap ap
Ġun ivers
Ġprins ipe
ar asal
Ġh ugasan
Ġpakik ibaka
di al
ĠH erm
tat aka
Ġsuppl ement
ad s
Ġpagpapat ibay
D S
I l
M uling
d el
Ġm unting
ar iling
Ġd uty
ĠT O
ĠL ine
Ġib inahagi
ons umo
ĠI NC
Ġkal ungkutan
adal asan
ĠK A
Ġbul ag
Ġsub sc
ĠC ert
Ġt or
Ġidin eklara
Ġre ce
ĠAl eman
Ġnak amit
pek syon
mat ic
ĠMor ales
Ġt inam
ĠB an
uti er
dr ug
Ġmatut unan
Ġl ate
Ġpar ke
Ġlas ing
ĠD TI
alamang an
ĠEr ic
ah ina
u utos
Ġn u
ĠM ot
C Q
ĠSan chez
ĠAk ala
ĠThe y
yos ong
N akita
as iwaan
Ġnak abase
ib ahagi
ung al
uw ing
Ġcom mun
Ġf lat
ol f
ie v
Ġmot ion
Ġmangg agawang
ĠB ishop
Ġallow ance
Ġ4 1
ote o
Ġg reat
Ġnasa an
Ġnakab atay
Ġcomm and
emp t
unas an
ĠBur dock
utier rez
b b
ul ly
Ġres cue
ĠHe art
ĠCar pio
Ġpap uri
Ġs eed
Ġb urol
Ġf ut
Ġmask i
oloh ikal
ĠG ag
ers on
Ġpol ish
ĠBelg ium
el ine
Ġpagk ag
ĠP on
ĠT andaan
is her
od es
ĠR ights
Ġgu ilty
toto tohanan
Ġb ust
um ents
ur os
ek e
ek tor
ab ala
Ġpina mam
il yon
Ġbat ch
Ġcheck point
ĠG itnang
Ġkina r
Ã± o
ar ta
er nak
Ġprot est
loy d
Ġflo or
Ġsery oso
ĠL amang
Ġaw iting
Ġlar ong
Mal iban
Ġincre ase
P H
Ġf ashion
Ġpass port
tero id
Ġd ib
Ġgum aling
Ġkaw al
B it
u unan
di da
Ġmap ay
Ġhum into
ĠGum awa
Ġkon ektado
Ġinc ident
X X
Ġmap abilis
O n
ino g
Ġkabab alag
Ġbl ue
ĠIndustr y
Ġmab ibig
Ġnin uno
ĠPana hon
Ġ1 20
Ġkag awaran
Ġvic tim
ĠBe ijing
p asan
ĠL GU
ĠR og
Ġmand atory
il iwanag
g est
ĠM andaluyong
Ġval ue
Ġm unga
Ġb ranch
Ġnag ug
ĠU t
Ġbin ub
Ġnan l
Ġd ur
ali ze
Ġmatat anggap
ĠAgu inaldo
âĢ¦ âĢĿ
M insan
Ġb ra
angg o
Ġsind ikato
ĠT reat
Ġsh ot
ĠCo unty
ĠP ost
ĠApos tol
m ena
ĠI k
Ġsar i
Ġkab an
ĠComm and
Ġdoc tor
aw e
di v
Ġtap e
H AN
up ahan
ĠR yan
Ġnar oroon
ĠSt and
ĠC op
Ġmad ala
Ġkabis era
Ġkuk unin
Ġmas ira
ĠB raz
th ur
IN A
Ġcrim inal
Ġhuw ad
g ed
Ġb ung
ex p
ĠSum mit
ĠGina gawa
Ġlis ensya
ĠBrit ish
ans anan
uni or
ĠB us
Ġ ÂŃ
Ġmagb ub
igr ante
Ġkinak ain
ĠJ ail
Ġp rec
Ġchan ce
Ġhaharap in
ĠRed ux
alaw igan
Ġinf lation
G iit
ar ama
Ġl ane
Ġdis trict
Ġmag nanakaw
Ġip asa
st and
Ġnagt ut
ol ba
Ġgina g
ĠG utierrez
Ġnagtat anong
Ġkapul isan
I ON
Ġsa chet
est y
ex port
ĠTul fo
Ġsin ulat
Ġkina pap
Ġpr angk
Ġkur song
Ġkan inang
ĠL una
ĠRay m
tr onom
Ġsar ado
P r
d ahil
Ġ iwanan
âĢ ĺ
Ġgo ing
ĠS ONA
uw an
ernak ulo
Ġb eter
ĠL TO
Ġsus un
Ġsch eme
ĠEc onomic
ĠN ation
Ġas ahan
ig nan
Ġka ayusan
kak aroon
Ġpaghih iwalay
% .
U MA
akit ang
Ġsp ace
Ġshow s
Ġnil agyan
Ġnagsis ilbing
Ġinirerek omenda
u i
ut asyon
ata on
ĠKa ilan
Ġisk edyul
n s
up aan
Ġip ang
Ġshoot ing
Ġbany agang
Ġpags amba
av it
Ġnakik inig
w as
al ayo
Ġreg ion
ĠMetro politan
G ood
ab utan
ĠD im
Ġsina m
Ġumi iyak
Ġkumb inasyon
ĠPhil Health
ĠK ategorya
Ġnap insala
.... ..
Ġoper ating
ĠOut look
Ġkan t
CP D
Ġl alim
ĠâĢ ĭ
Ġpananal api
ĠBar b
Ġhil aga
Ġprof essional
anc y
ĠDV D
Ġt alakayin
Ġh alo
Ġmak apangyarihang
int ing
ĠP ala
re port
ol fo
st ar
Ġtag apang
y ak
Ġsp ray
Ð¾ Ð
ĠWill iam
Ġobliga syon
Ġcompan ies
ik il
Ġnag ag
Ġdr ivers
Ġtal ento
Ġnagpapat unay
Ġpinay agan
D FA
An d
ĠT ayo
Ġpagd urusa
Ġmakap angyarihan
LE X
Ġkompy uter
Ġimb es
Ġlingg ong
am sam
ĠB ataan
Ġsin i
ĠMun icipal
ĠK C
Ġnakik ilala
t alik
Ġf ind
ĠJ ason
og on
ce ed
uy at
Ġreb eldeng
AM I
mum ulan
Ġpinaniniwala ang
Ġb abas
Ġpag did
or as
c am
Ġbina ril
uba i
ip ot
Ġt ugma
ĠAn ne
Ġmag az
Ġkala unan
Ġp asan
Ġb io
os h
ĠR iv
lo ud
Ġnakak ap
Ġnangung una
Ġmagpapat uloy
Ġkinapap alooban
imb itahan
eh ong
Ġkak ain
ĠMor eno
Ġpre par
ĠIsland s
U maasa
Ġitin ut
I lan
f i
Ġz ero
R e
us ed
Ġipinat utupad
d umal
t ala
ĠD ang
ili an
ĠNag kat
Ġl ampas
ĠS as
Ġpam angkin
NC R
0 1
Ġs on
Ġc urr
ĠB ahagi
ĠL ipunang
and om
Ġnagpapat akbo
Ġinstr umento
Ġ ia
ĠN an
ĠV lad
pris e
ĠFinan ce
um entong
Ġf ocus
n ong
ĠH ayaan
Ġpat lang
Ġpagh arap
alag o
ĠIn dian
ĠB ata
Ġincl ud
Ġtak dang
Ġnakas uot
Ġproduc t
Ġlet ter
Ġpagpapa unlad
ĠBilib id
ĠK ondisyon
ĠT aga
Ġ1 000
inis an
Ġipinas ok
Ġtrah edya
ut es
om p
ĠCl ark
Ġpagk ad
Ġhin irang
p t
Ġb anggit
el asyon
ĠY olanda
Ġt onel
ĠA urora
Ġcle arance
an ungin
ĠK en
d eng
and ed
P res
Ġâ Ĥ¬
Ġsina bihan
Ġmagkak apatid
at ure
Ġmanat iling
ana hong
ĠLang it
ivol cs
mam alaki
Ġrep orma
Ġtagas unod
s il
Ġmat atapos
Ġkuw entong
anat iling
ilip ad
ons ulta
hh h
l alo
Ġpul bos
alas akit
Ġt anyag
Ġab le
roso ft
Ġsak ripisyo
hang ad
Ġnapak ahalaga
Ġipinang ako
Ġret urn
Ġoport unidad
ama an
Ġina alok
duc tion
ĠAmp atuan
Ġk ulto
in osa
Ġh ugas
ĠL anao
ĠGr iy
Ġpant y
Ġhigh way
Ġpagm um
ĠB am
Ġi od
Ġtab ernakulo
Ġpagl alakad
emb ly
r it
ĠM una
Ġpang ing
Ġbaba ing
Ġpagsis isi
Ġord inan
Ġs ement
ĠL umang
Ġalit untunin
Ġfranch ise
inam on
Ġpint uang
Ġf ail
ĠRol ando
Ġay uda
us ter
ĠB ib
Ġkor por
Ġpenal ty
ĠU maasa
ĠY o
Ġcer emon
Ġkont i
Ġipinat upad
Ġsinal ita
Ġk eratin
Ġsam akatuwid
Ġpah iwatig
tan to
ĠâĢĭ âĢĭ
Ġw age
Ġpagkakal bo
ĠConc ep
a ut
Ġt uyo
Ġreg istration
ĠElec tric
ĠJ ake
Ġmana nag
ĠAc tion
Ġmamam ayang
Ġd eklar
ĠReg ulatory
Ġnang ags
ĠE qu
Ġtr ib
ĠCon stitution
Ġpamas ahe
ag ap
Ġb ah
og en
low er
Ġinter pret
ĠB eth
Ġv ar
Ġk alamangan
ĠEst ado
eh ersisyo
Ġnagk akas
ĠSab ihin
ugto g
Ġcontin ue
ĠL arawan
Ġtr ial
Ġsinus ubukan
ecial ly
ebre o
ĠAl c
M abilis
S ila
ĠN ic
Ġbil hin
Ġimpluw ensiya
Ġpagd ud
Ġipinag kaloob
Ġb ed
uk so
Ġreb olus
ap rubahan
Ġb akas
up on
iri am
Ġcor por
v sk
na w
Ġkababalag han
Ġd inal
ĠT ra
ĠE mb
Ġdak ila
Ġorgan ic
ĠErn esto
ĠS ite
Ġa id
Ġkap ansanan
Ġcomp lex
igur ad
Ġmasus ing
K ina
ik lab
Ġag o
m igo
Ġkar umal
ĠDef ensor
Ġl ul
5 7
D iyos
P a
Ġmad la
inan t
Ġhtt p
Ġmic ro
ip le
Ġwin ner
ĠFP J
R P
Ġkan in
ub atan
ĠCO A
ĠPort al
ĠI ka
Ġ4 7
uns el
Ġhinih iling
ig er
ta il
Ġmat apang
ĠMah irap
ĠJe ff
or g
re a
Ġbum angon
Ġhil ig
Ġhah aha
Ġk c
ĠT emp
ell ing
b el
Ġw omen
Ġkatut ubo
Ġitin uturo
5 2
Ġpar usang
Ġpl ugin
ĠLot tery
ip er
Ġpro toc
Ġtr ue
ĠPags as
Ġmaib alik
ubay bayan
ĠFeb ruary
re m
An ong
ĠBer nar
it ive
ap orte
ir aan
Ġmak is
iti is
Ġpinags ama
M S
w ari
ĠP osible
uh anan
ĠParas ites
h ib
r ary
ĠP R
ĠJess ica
ebang helyo
Ġh ays
uk aw
Ġpinakam alapit
Ġme dicine
Ġtrans fer
kuw entro
Ġpar atang
ĠD iaz
Ġan other
Ġnasasak upan
4 00
ĠR SS
ĠAr an
Ġnai isip
Ġnait alang
Ġstud ents
ap in
Ġhal f
Ġnangang ahulugang
Ġcaps ules
N ar
P arang
ick ing
Ġmah inang
ĠWork ers
Ġpangy ayaring
ak ila
Ġn uc
ĠE mer
Ġro m
ĠNeg osyo
ĠF ilipinas
Ġmal uwag
Ġid ol
is ina
Ġkal ibre
op ya
reh ensive
ĠLoc sin
Ġpang alawa
Ġtrans par
Ġem osyon
Ġhad lang
ib abaw
Ġipinal iwanag
irt ual
Ġkahih iyan
ĠC ris
Ġpat n
Ġkap isanan
Ġdatap uwa
Ġis us
Ġgul aman
fa el
Ġprangk isa
c op
s he
ul ite
to d
Ġpagpap alabas
ĠBas ahin
Ġk usto
Ġkat abi
dic t
Ġju eteng
ĠI C
pr us
5 4
Am inado
ingg in
tib a
ĠHes u
ĠKast ila
ĠS apagkat
Ġ4 9
N aka
ub ungin
ID S
ĠWas hing
un ter
Ġaccount s
ĠAl em
ev ision
Ġlag nat
Ġfol der
ana lo
Ġsina got
Ġ {
Ġar r
Ġsc ript
N AG
ot t
Ġcond om
iy am
Um abot
Ġpang amba
Ġdi alog
Ġnap ip
Ġid ina
Ġplan eta
Ġsiyent ipiko
ĠM ir
ĠIp inag
Ġtam od
ĠD ating
Ġtat akbo
Ġgin h
Ġ Ã
ek ober
Ġbet ter
ĠTour ism
Ġst yle
Ġex change
c are
Ġmaa asahan
Ġbid ding
Ġ unawa
Ġmal ayong
ĠNag karoon
Ina asahan
Ġc ause
atub iling
Ġs omet
ĠM ilit
Ġbul kan
ĠZ ub
Ġpangang aral
Ġk uto
ĠA mbass
Ġpang itain
P osible
w ith
Ġano mal
unta in
Ġlub usang
ĠSon ny
× Ļ
Ġmab asa
ay uno
ĠV e
Ġsc ene
Ġpagtat anggol
ĠRedux ine
ant ry
ung uhan
Ġsund along
pal iban
Ġimpluw ensya
ĠiP hone
Ġsusun ugin
Ġik al
ĠLt d
na tion
ĠMag t
Ġeffect ive
Ġbit bit
Ġnakal ista
Ġkontrobers iyal
ĠNagkat awang
P at
ĠZ amb
g ie
alam ig
Ġth esis
Ġte acher
ĠRob in
Ġlamb lia
5 3
Ġik ap
ĠMari o
ĠM eron
ĠB ato
ĠE k
Ġim mun
Ġl ayong
Ġpl ast
Ġsak una
Ġh inawakan
ĠR isk
ast as
0 9
Ġsa fe
Ġob ispo
ĠM alaking
Ġpinang alanan
am oy
Ġcont est
y unal
and ro
Ġpagtatang hal
r erek
u do
Ġm ulta
ak ers
ĠM insk
amb ahay
ons tr
Ġwh ile
Ġrek lamong
Ġp apat
Ġnagd aragdag
fa ult
m osp
Ġt ung
uh aw
uct ure
Ġlock down
ĠS im
W orm
Ġnap iling
ult an
l acion
it ical
ab anan
ĠM iriam
ob ra
ĠRena to
ub ao
ilis teo
ĠVal ley
row th
Ġtinit ingnan
Ġhays kul
ĠFrank lin
ĠD y
ĠL ive
ab is
alik uran
and ine
Ġdep uty
Ġn ec
Ġnagt anong
mas dan
Ġcons umer
Ġmaw awalan
ang ka
Ġser emon
Ġalternat ibong
endors o
n in
ch ing
Ġmana langin
ak ak
Ġnagt amo
I ng
ĠPr anses
Ġmain tenance
M angyaring
di o
ĠBel arus
ĠP op
ĠAl ing
Ġpow der
s up
ĠR eb
ons ider
ĠSinus uportahan
Ġ aba
ĠM D
H A
w id
Ġd iba
ac ing
Ġwith out
Ġestudy anteng
Ġp el
ig nal
art ers
) -
G r
Ġsel andine
rom e
d in
Ġhap unan
ĠM alaki
Ġbinig yang
apal aran
Ġmo v
ĠLe ga
Ġkontrol in
Ġr ason
ĠM ukhang
pos ition
ĠKal igtasan
Ġre ading
Ġcons ider
Ġleg s
Ġdz BB
Ġre ady
Ġsusp ension
Ġprem yo
Ġminister yo
Ġt weet
ain s
ĠPh oto
Ġnil agdaan
Ġmor al
L e
Ġf uel
ĠEsp inosa
k am
ok ong
ar ate
Ġin tr
Ġangg ulo
p itan
u et
Ġp ipe
ĠD PWH
h im
ĠE th
Ġnagp atuloy
Ġmagd ulot
Ġkat atagan
ĠMic rosoft
Ġwant ed
ad aling
ĠH uk
ips ip
ĠB usiness
Ġkill ings
ĠDan ilo
Ġgarant iya
Ġc m
Ġmaram ihang
alit ion
I BA
N E
ĠH am
nal do
ut uloy
Ġnak asama
Ġnaw awalang
us ik
ĠT ang
Ġgub at
M D
Ġgan on
p u
Ġpal engke
ĠS ang
ila o
Ġl u
Ġposit ive
Ġbilangg uan
N L
am tan
Ġpagl ipad
l on
Ġmas ter
pl a
kak aloob
Ġmat upad
Ġnagt atapos
ve z
ĠBas ic
any ahan
Ġusap ing
yr ight
Ġchar ge
m n
Ġmab awi
ĠB eng
Ġkain in
An i
Ġche ap
Ġpagpap akalat
inig uro
Ġfac ility
ber to
ĠZub iri
b ago
Ġga wi
Ġpak o
Ġhum igit
Ġkak lase
Ġtal ks
ĠBiy aya
Ġs port
ĠD ubai
Ġkap ani
Ġmask ara
Ġkor ona
Y un
ĠT ac
Ġkina kalawang
Ġdina d
Ġdiv ision
Ġp awis
yal es
Ġnab ab
ty pe
v o
Ġt ataas
ĠG uev
ek onomiya
Ġv ess
Ġbahag ing
uh uli
Ġniy ong
ay ber
he el
op erat
let s
Ġf ederal
ĠAb d
Ġl awa
Ġmaka usap
Ġkund isyon
D atapuwa
Nag s
Ġkom portable
Ġum asa
Ġpagp asa
ĠEx cel
ĠSum unod
ug bog
Ġpam ayanan
ĠCord ero
ĠP AR
ĠC ong
Ġkas uhan
Ġimb akan
Ġcol or
Ġgood s
ok no
Ġperman enteng
Ġin form
Ġbut ter
ĠWashing ton
Ġn ursing
un eta
Ġkag ubatan
Ġnakap asok
RR MC
A k
Ġf ound
alis asyon
ĠE arth
Ġrehabilit asyon
ĠAlem anya
T ungkol
ub usan
Ġtrans plant
ĠMas ter
Ġmakak apasok
Ġnagd ulot
Ġtagapag t
E M
iv ity
Ġesp ecially
ĠQu ir
Y ou
Ġb ud
ĠL ola
Ġsol ar
ĠS hang
Nag simula
Ġp asa
ident ial
ĠG erald
Ġmo ist
Ġgr ade
ĠN apag
ris on
ĠRa fael
ĠAssoci ate
ĠCy prus
V P
Ġam n
Ġpas aporte
v id
Ġp ed
ĠS eb
ut or
ut ihin
ĠRed uction
k anyang
Ġ amang
Ġb le
Ġdal ubhasa
t it
ĠS und
ic el
ĠW ag
ĠMerc ado
t anggap
ĠT i
ĠT otoo
Ġl ant
Ġin ang
Ġpolit ika
ĠS imula
ĠW ith
ĠPas c
Ġlay er
A b
Ġnag re
Ġassist ant
p ad
Ġb isyo
ĠR O
Ġpol usyon
Ġsuppl ements
Ġbas ic
Ġmap rotektahan
Ġpinag hih
iz on
Ġbar k
Ġdet ention
Ġund ers
m alaki
Ġlup ang
ĠMak ap
Ġp una
Ġl ut
Ġh iwa
Ġproduc tion
Y O
v ant
an to
Ġf ish
od o
Ġ5 6
ĠAnt hony
P aalala
ĠL ED
toc urrency
Ġherb al
Ġt aya
ĠÂ £
Ì ĥ
Ġib enta
Ġmags ulat
ĠMag basa
Ġprot eksiyon
?? ??
A A
Ġtr ono
Ġal ahas
hehe hehe
Ġpunt ahan
Ġpagm imina
ags agan
ard en
ĠG aya
Ġmagaz ine
is im
Ġkasama ang
Ġih ah
Ġsem inar
Ġdina dala
Ġpagkat alo
Ġmagk ahiwalay
ick y
ĠF orm
DO J
Ġsigurad uhing
empl ate
Ġpinakam abilis
Ġmagh ain
ĠPr ime
Ġkinar oroonan
ĠB ana
ih irang
Ġres erv
Ġdat abase
ĠKina kailangan
Ġgant imp
ĠD in
ĠO f
ĠRep ublika
Ġener gy
Ġlat est
ik im
Ġmak apan
Ġnasus unog
k il
Ġimplement asyon
Ġp sych
il ak
Ġal g
Ġh ula
ro ke
Ġginaga mpanan
ĠAb ad
Ġiss ues
ak ripisyo
sa an
Ġtat anungin
ĠMag k
ans ela
Ġsum abog
U K
Ġnagpap a
8 6
it ro
Ġb abayaran
ĠMag p
ren ew
pan iwala
Ġmakas aysayang
Ġther apy
Ġkata uhan
. --
Ġpar king
Ġdal isay
Ġalam at
Ġtap ing
Ġmaj or
Ġh ack
ĠK or
Ġf ive
ĠL og
ĠDi okno
ĠB ad
Ġpinag tat
Ġic on
h old
ĠA mb
ĠM PD
ĠN anay
in ete
wel ahan
E U
c or
Ġlag yan
Ġmabub uting
Ġpagpap alit
Ġb ubong
Ġkag awad
Ġoffic ers
ĠM ov
ĠW al
Ġc alam
ic ian
Ġkil usan
Ġbina y
Ġis inalin
ĠS ison
Ġkat ulong
Ġdr ayber
Ġmagsas agawa
ĠEvangel ista
kas undo
yr ics
s ter
ĠO plan
ah ak
Ġpangkal usugan
w apo
Â ł
th ers
Ġkam pe
Ġj ail
bab ala
Kah apon
Ġesk uwel
Ġweek end
w ater
iv ery
Ġk wal
Ġy ellow
ang iti
Ġengine er
ĠAmbass ador
Ġpa alala
Ġbro wn
tain er
ak asan
et ime
Ġchild ren
Ġfut ure
pap er
Ġsin oman
Ġpak sang
anay ad
Ġisina ma
Ġkinas as
ĠF erries
Ġbul l
Ġpin angg
imple ng
atay ong
Ġnan iwala
b ate
e to
Ġl ason
Ġpanin indigan
Ġelectr onic
Ġb or
Ġnags ip
ĠUn ibersidad
Ġga d
Ġh aha
Ġmakik ilala
ĠZamb ales
Ġd er
ĠC are
Ġnagl alakbay
abag ay
ĠCant os
Ġfeed back
tr ies
ĠBag aman
Ġub as
ĠPul se
Ġil o
f ied
h anggang
Ġkas agsagan
apat ang
Ġsum ang
Ġpinakam ahalagang
ab watan
Ġsina pit
Ġnagp ositibo
akas uhan
ĠMag anda
Ġp ep
Ġlum ul
Ġbas ag
S iguro
er os
Ġil apat
ĠEng ine
ineb ra
d rol
Ġr isk
ism aya
Ġgoby ernong
A O
ip orm
Ġkap uwa
eng er
ĠMala ca
ĠMin ority
Ġdeklar asyon
N BI
n eg
ic ular
Ġnakal igtas
I ba
Ġnab awasan
ĠP wede
we ep
Ġam ong
Ġdi ffer
ĠCor into
ir in
Ġpas y
clus ive
b ert
ĠCast illo
um enda
ĠA pat
id al
ĠR ico
Ġi isip
Ġpriv acy
ah erong
Ġnal il
ĠKap ulungan
sk lus
Ġpapatay in
Ġp ulo
uh i
Ġmagb asa
Ġnakat utok
ĠLorenz ana
D P
Ġma alis
Ġsab ihing
imp ilan
ĠKas ulatan
ĠRod olfo
Ġm ental
Ġb ali
Ġkag inh
Ġbe er
ors ogon
d os
ĠF am
Ġkap ulungan
agd an
Ġpinag l
Ġmag re
reg ular
Ġw on
Ġnap aroon
Ġbat id
Ġbak ul
l awan
Ġgr amo
________ ________
l olo
r ies
ĠD en
Ġmagt ungo
Ġnamam ahala
ĠMaj ority
T R
Ġco ffee
ar is
u ing
u um
Ġt ir
ĠS k
umb aba
Ġmana natiling
Ġsand ata
p ong
Ġc lay
ĠT est
ub ak
ec han
ĠApp le
p ack
ĠP atay
Ġmak inarya
ĠSta ff
v ig
ot as
ĠF ilisteo
ena s
ind er
ĠMr s
Ġr ap
Ġmin istro
Ġfl u
Ġmakal ipas
Ġ ubo
uk id
Ġstr ong
at ibong
am ent
Ġpagh ingi
ĠPagk awala
awas to
Ġwel come
Ġr amdam
Ġa udi
ĠS K
Ġkid lat
ik leta
ĠPagk ain
Ġsa ysay
Ġnang asa
0 6
Ġpang alagaan
ĠY ong
ĠGuev arra
Ġnat upad
ĠEsp a
u z
ĠA z
ĠG ala
Ġpagl ilipat
Ġb alangkas
ir amay
Ġrebound s
out ube
G H
Ġtul ak
ig at
kat awan
ĠJer em
Ġhard in
ev en
Ġa utom
Ap p
S U
Ġh abag
qu id
Ġob serb
L I
ĠO WWA
p es
Ġmak akita
we en
ĠRes pons
t in
ĠP la
ĠC PP
Ġpaghah ari
Ġco ord
Ġcusto m
Ġbula ang
S iyempre
Ġs teroid
ĠT RAIN
Ġnap as
Ġnagl ilingkod
Ġut ong
Ġtangk e
Ġkan sel
ren ch
ĠLev ita
ino o
Ġisin umite
ĠInf antry
Ġdum ami
Ġmakab alik
h id
ĠP AL
Ġy amang
int as
Ġ5 3
Ġpagd ami
-- --
Ġjurisdic tions
an na
Ġmag aan
Ġkan to
unt on
ĠR h
Ġpro mot
ĠU ri
ĠAl lan
aw arin
Ġmag w
Ġco verage
Ġem os
] ]
ĠT ro
ĠH ay
Ġpaghah ambing
Ġs ites
Ġt aw
Ġnak aharap
Ġkorpor asyon
ĠNa il
ĠAc count
ik anong
ĠG ad
ĠH IN
ĠJe j
Ġd inak
ins alang
aint indi
Ġp ush
Ġsit uation
Ġpinal itan
ĠQu i
P art
Ġnak ag
ĠR udy
Ġenter tainment
Ġpinag tibay
ay bayan
ip ikadong
arang al
ĠComm on
W hat
ĠT aal
Ġsin ibak
ĠAran eta
eb s
ces sing
k ayang
Ġn ip
N ad
Nap ak
Ġkal abasa
Ġbar ilin
ĠSal ced
ada anan
Ġnegosy anteng
Ĩ Ĵ
Ġib abalik
Ġpro ced
Ġbum ib
w ar
Ġmay a
Ġtut u
ĠHigh way
T andaan
Ġd elik
Ġik atlo
Ng uni
r ian
ĠG l
b ins
Ġpinang unahan
ĠSA F
Ġm osyon
Ġc apital
Ġmaa asahang
ern ity
Ġa alis
ona san
Ġcream s
Ġpipili in
ĠR oc
Ġmat ter
Ġa alisin
Ġ5 7
Ġtur ismo
reres ulta
L BG
p antay
ik abok
apag od
ĠG inebra
ĠU A
ĠJos h
ĠJos ue
k ar
ol od
Ġkab ilis
S IS
ĠB ase
Ġmat apat
T apos
Ġnakat at
Ġisas agawa
Bag ama
Ġs uff
alim ang
umb ins
Ġs op
st an
Ġpagh inga
Ġposs ible
0 5
Ġp en
Ġr izal
ĠMid dle
Ġeskuwel ahan
ig anti
Ġre ason
ĠPag tat
Ġnab ub
anay am
ason ic
Ġval id
Ġnak asakay
Nag karoon
ebr asyon
ut ulan
ed ad
Ġum iyak
Ġpagt ataas
Ġnagt agal
Ġtim es
oster one
ĠGab inete
ĠRey naldo
ew orm
Ġsa yang
un di
Ġma aresto
Ġkat uwang
ĠV ar
Ġda anan
ĠM alak
ĠR ain
ĠAn iya
Ġdirek tiba
Ġpa utang
int endent
sh irt
ĠBayan i
Ġbro ker
pon de
ĠT ime
Ġtag lamig
Ġini imbestigahan
Ġfoot ball
ĠConcep cion
ĠH onasan
Ġkas angkot
Ġar ch
Ġpagl ilitis
Ġser ious
Ġpack age
ĠD ol
oc on
p akita
Ġl ord
re es
ata ong
Ġmab isa
Ġt ulang
Ġsinus uportahan
ust os
Nak asaad
Ġland sl
ĠS P
Ġkat ahim
Ġpap ayagan
ĠIp inak
Ġhous ing
ubl i
Is ina
Ġespesyal ista
k ang
Ġbut il
Y an
a ing
ate hiya
ens iyang
Ġh ike
Ġam er
usto m
ĠAnt ipolo
Ġlup ad
l ahat
ĠR ose
b ath
ĠP M
ut uwa
Ġpas ukan
Ġmod ern
ĠTrans it
Ġess ay
Ġ2 50
Ġmagt ayo
Ġemploy ees
Ġnas aksihan
Ġprem ium
Ġmakakat anggap
s ino
Ġkas ambahay
Ġpangh im
ut onom
ĠC riminal
Ġlum ipad
Ġ5 2
Ġmagb abago
pop ular
S imula
b ahin
Ġsuc cess
k uran
Ġv eg
ĠHer nan
ĠV in
P U
ist ika
Ġtin anggihan
Ġsy empre
Ġsine han
c ript
Ġm ort
ĠK ath
ĠNa zar
Ġt uwa
Ġlit eral
Ġjack pot
ĠMex ico
Ġh ating
Ġkas arian
ang o
ĠTr ain
inan s
cos is
Ġf ite
Ġre form
Ġpagt ukoy
Ġmagl abas
ĠIsrael ita
H air
l os
ing il
Ġre lo
Ġpinag mumulan
ĠPana nal
ĠRepresent atives
B ong
Ġpas ado
Ġpinag kukunan
Ġimah inasyon
il t
Ġmal e
Ġsh all
Ġtestimon ya
d ya
om as
Ġsm all
ĠD ENR
amb ang
Ġimp rastr
Ġexc ited
u ed
Ġg all
DA F
Ġpagg unita
b agong
ant ungan
Ġbaw iin
Ġpah inga
Ġ198 7
Ġiod ine
Ġina ak
ĠSal le
ukl ukan
CO VID
Ġmagp unta
anas ang
Bag amat
ĠHud yo
Ġmak akasama
tr aining
Ġpagpap alakas
ĠT ek
Ġnat alo
Ġsing aw
ant ang
Ġip as
Ġik alawa
Ġm isa
Ġrek ord
Ġpropes or
t ical
ĠD al
and on
una hing
Ġisin ugod
ĠProp eta
os ta
Ġalternat ibo
ap rub
ĠL agi
Ġnakak ah
ĠKrist yano
ĠCr ime
i imbestiga
aya in
no od
ĠAl den
Ġek sklus
ĠVen ecia
Ġnakat alaga
mam ahal
ĠPas tor
ĠSh ampoo
Ġih i
iv ed
ĠIn ih
un k
ib al
Ġbum ab
Ġmasas abing
ĠL our
Ġtr a
Ġnegat ibo
ah asa
ĠCh ild
tim ate
ind ustr
ĠMinistr y
l ema
Ġt uwid
Ġh az
Ġqu alif
lob e
M B
h ik
Ġw ww
ep tion
Ġro ck
Ġle on
ĠKas abay
Mat agal
Ġproduc er
ĠLo z
in ip
Ġh aring
en di
Ġkay at
ĠP inat
Ġr ub
ĠL atin
Ġv iral
Ġ/ /
Ġwall et
Ġbit coin
r do
Ġcell ulite
W ag
i ate
Ġm ind
ĠM P
tor e
T S
uw is
una t
iv a
Ġpol isiya
ĠWe ek
Ġenhan ced
b ok
Ġbu ild
Ġdist ansya
uk e
og n
oper ate
ar ro
ah ibo
Ġsel ebrasyon
Ġipap akita
Ġtod o
Ġg rey
ĠW omen
ĠQue en
ĠRes olution
Ġbinab asa
Ġphys ical
y ch
Ġis ulong
ans om
Ġpagpap akain
ĠNag s
ĠT ina
Ġg itnang
Ġal erto
Ġpakikipag s
Hin iling
Ġt awa
Ġpam insan
ĠS ky
ac he
Ġkar at
Ġhehehe he
il ag
re di
Ġc ivil
Ġmab ubuhay
ĠIn i
Ġrating s
Ġkat iyakan
Ġlag usan
Ġipag tanggol
ust ung
Ġcon trac
ĠMab abang
ĠOb ama
ĠðŁ ĺ
ĠPuw ede
Ġpinagbab aril
ĠJej omar
alan ta
Ġdep ensa
Ġpuk i
r ick
Ġdom ain
Ġnamum uno
ĠQuir ino
it ation
er imento
ĠT han
Ġlum akad
Ġkas t
Ġnakak aranas
ĠPAG BA
Ġkas agutan
Ġip ak
nat asan
Ġfacial s
Ġkagand ahang
Ġseremon ya
Ġs iko
ĠĠ Ġ
Ġnagk amali
sp onsor
ĠPL DT
T anging
is idad
Ġmo xx
Ġkat atapos
id ro
ĠAd an
Ġmaka iwas
ĠH o
ĠMar quez
ĠKan iyang
Ġg ot
ĠN ino
ers h
ih iwalay
ĠH ack
Ġnob ela
Ġmamah aling
ĠRome o
Ġmar anasan
Ġmag lingkod
Ġbal ota
ĠD onald
Ġsol id
Ġser yosong
Ġsinak tan
I kalawang
L aban
Ġs anga
al alang
Ġb alay
Ġnagk uk
Ġk ukuha
Ġam po
Ġper m
ĠAp ol
Ġwr it
ap her
or ie
Ġsi x
Ġmagkaka ibang
ub in
ĠY outube
ĠFil m
Ġpampas aherong
ator yo
Ġmaip ap
Ġesk welahan
at ura
M ahal
to g
Ġbox ing
Ġl awak
Ġst ream
at ikos
ri ors
Ġung ol
Ġt asa
ab les
ĠZ e
Ġkontrobers yal
Ġipinak ilala
0 7
ik man
ĠT ext
ĠL loyd
iv acy
Ġpap alapit
Ġkont ing
ak ang
ug po
eh istro
Ġber deng
Ġd im
Ġ5 8
Ġt ank
Ġip apat
Ġkatahim ikan
L P
Ġpar ents
ĠT ri
ĠAng elo
ĠMak ak
Ġimport ed
K A
Ġg intong
ub ha
te in
ĠMal abon
Kas unod
[ [
ĠNag simula
Ġm ission
AN D
Ġib inebenta
ici ans
om ento
Ġmab ibigyan
Ġkat amt
igt ad
ell er
Ġeb olusyon
Ġnakah anda
ĠVel asco
l ast
az ole
Ġilo ilo
il ay
ĠG irl
igt aran
Ġorgan ismo
Ġs ep
Ġm apatay
Ġpagbab awal
Ġbahag ya
Ġkausap in
Ġt err
Ġn inak
Ġin vestig
ĠRes earch
ĠItal y
ia zon
Ġmot her
Ġmagka ibigan
Ġkas e
Ġj et
I big
Ġt enga
ana hin
ino ong
ĠY awe
Ġhim ala
Ġprof it
aliz ation
Ġyuma ong
Ġmonitor ing
O r
W ell
lim ate
ĠÂ ·
Ġtam ad
Ġgad get
Ġkab ahayan
e ver
Ġk y
Ġit anong
ĠY an
Ġtub ong
Ġmagpap akita
l ic
el lo
ĠM ama
alin ong
Bas ahin
m insan
s w
Ġsum mer
Ġmap ansin
ons idera
P al
na ment
Ġib inasura
ĠMas aya
Ġlin ta
ĠKing dom
f all
Ġbot h
Ġvolunte er
P agd
c ycle
Ð º
Ġl ear
Ġh ambal
ĠS amp
yon e
Ġik ina
Ġnaka usap
Ġlead ing
ĠInsp ector
Ġarest ado
pres a
in burg
Ġm anood
b or
ul ations
Ġv ote
Ġpo ot
Ġl iga
Ġas al
ĠZ one
ĠVal te
ĠPina p
alal ahanan
Ġlic ense
ĠL ife
Ġch ain
P I
ĠP RO
Ġpr inc
Ġdad dy
Ġa qu
Ġth erm
Ġkina h
ilim utan
CO O
P M
Ġr ider
ory ente
Ġapp s
Ġrep utasyon
Ġcle ar
ĠHIN DI
Y ON
ag upa
Ġbag sak
ĠP anoorin
aling a
ill er
akat awang
Ġnatut uwa
W AR
Ġt ask
ĠL ayunin
Ġup load
Ġal umin
c ing
ĠEmb ahada
em o
Ġto o
Ġik uk
Ġ6 00
h o
Ġmar umi
ĠPam ilya
ĠRa ul
im igay
Ġmed alya
m aya
y c
Ġg i
ukl ok
Ġtutu usin
Ġs ung
is or
ĠBu ild
a on
× ķ
ĠN O
rid ge
Ġg ang
ĠB ob
ĠTr in
Ġwh it
k ag
ig kas
Ġnag ngang
Ġib ub
aka ilang
0 2
b uhin
ĠAd vis
Ġpagka unawa
ask uhan
ĠHen ry
Ġarest uhin
Ġpan iwalaan
P inoy
Ġp unan
Ġnagpapat uloy
Ġkam o
ĠU son
ĠJul ia
Ġd ah
Ġd uon
Ġnap akas
mer ce
Ġparty list
reh ens
Ġpag y
ĠL O
Ġdin ukot
Ġanomal ya
s ala
Ġanaly sis
oko han
ĠS ultan
Ġw ish
Ġint el
Ġipat utupad
F C
ap er
Ġh usay
Ġnan un
ak si
ĠMas s
ĠUm ali
ju dicial
ĠB iazon
ĠBelg ian
Ġkaibig ang
Ġc ease
angg alin
Ġpinak ad
p up
Ġgr anada
Ġsch olar
M e
c us
ic op
ĠMal yshe
ĠD NA
ĠB atay
ĠK ur
Ġmat aba
Ġnagl al
Ġide a
A d
us uri
Ġna ibigay
Ġl uklukan
ik ling
Ġimp iyerno
Ġlar uan
Ġs orry
Ġb unal
Ġd os
Ġh impilan
Ġak adem
Ġpinags amang
Ġsomet hing
re al
ĠT ar
ĠReg ine
Ġfl ag
Ġpay ak
kol ehiyo
ar ms
ĠK las
uot an
Ġnatag puang
Ġmag ic
hip to
or ation
Ġlum alaban
ĠCol iseum
ĠðŁ Ļ
Ġceremon y
s s
Ġp or
Ġk uta
Ġnagl alarawan
ĠEn ri
Ġgantimp ala
Ġpar is
Ġtal iwas
Ġseg uro
alab asan
h imik
ew ala
Ġhum iling
oses ong
ĠLe ona
Ġpaglil inaw
Ġboto han
k is
Ġy et
ien za
unl aran
Ġmak arinig
Ġmap al
T T
Ġtagas uporta
Ġhen eral
Ġkina u
Ġpant alon
Ġtangg ihan
ĠPon ce
Ġop port
Ġtalak ayan
M alaki
Ġb antayan
st ant
Ġkons ult
b s
Ġdi agn
Ġkag alingan
Ġbin it
ĠLour des
Ġinil alagay
ĠR H
Ġkap ansin
Ġsal ubungin
K an
p ulong
ĠL an
eg e
Ġb igay
ĠB i
Ġal ay
l urang
Ġmekan ismo
Ġin os
ĠN ung
ĠI lan
ind utin
ri ed
ĠCommun ist
Ġmapagm ahal
up in
Ġc ats
ĠB C
Ġsam bit
Ġnangg agaling
g ina
y y
th ough
Ġpagtatang ka
ec om
Ġnap anood
PD EA
ĠL eb
Ġbu ck
Ġadministr ator
ph y
Dum ating
Ġg ift
ur er
ĠT N
Ġman usk
uga d
Ġvolunte ers
Ġmag dam
Ġnam ataan
Ġkal end
ly ing
Ġbay aw
ĠOc ampo
z ed
ĠM abuti
Ġinter face
Ġteror istang
Ġbenef its
Ġmemor andum
iss ue
Ġadd ed
Ġkana is
H igit
Ġ 00
ĠS imon
Ġpar k
ĠD ev
ĠCon vention
rib e
Ġ ï
aas awa
K asalukuyang
l av
Ġk ud
Ġb inago
ul ungkot
Ġnak alimutan
ES DA
Ġna natiling
ĠLib eration
ac re
Ġnakak arinig
IN O
ĠI G
Ġmagb itiw
Ġkumb ins
h oy
Ġk im
ul um
ĠM uling
ed eklara
Ġv irtual
mp ahan
ber g
g ers
ick en
ĠLang uage
Ġbel ieve
Ġhtt ps
9 7
ĠSak si
Ġmoist uri
Ġbu od
ag asa
Ġtr igo
Ġsund an
pas s
Ġdumad aan
Ġd ism
ĠA nal
C on
ĠP U
Ġpro ud
Ġpagh ihintay
Ġste p
N ING
ol it
est ro
Ġcoun tries
ĠRiv era
T atlong
Ġg ulat
ĠE f
Ġlum ayo
Ġm ill
id avit
ĠK apatid
Ġl oc
Ġpr ost
Ġsmugg ling
Ġtinal akay
Ġs anggunian
ĠAlas ka
ĠAlej ano
inat ing
ys ical
ĠTerm inal
n ight
ĠD iego
or asyon
Ġpar am
Ġpo ok
Ġpagpap anumbalik
ĠSuper intendent
ĠJ ust
ry st
ik on
Sinas abi
r ation
v ings
ĠH D
Ġpakikipag tulungan
s ex
it ig
amb uhay
Ġap ela
Ġt abing
Ġqu estion
M uli
Ġpat h
Ġy akap
Ġmagb alik
h alian
y um
Ġna alala
ĠMon te
Ġo t
Ġnang una
Ġpags ulong
ag po
Ġumi ikot
Ġyuma on
ur ado
Ġmar apat
Ġpagd aragdag
ĠSenador a
Ġinterpret asyon
c ell
ĠM uli
Ġka ina
yan sa
iv ely
Ġmab ilang
Ġth ings
ĠS ag
Ġint ensyon
Ġt ong
Ġr ace
Ġmak akas
Ġmonth ly
ful ly
ĠSob rang
Ġwin ning
Ġplast ik
aw ahan
orn ing
Ġindep endent
Ġpamb ansa
d ad
ĠL az
anc ing
ĠK ad
ta an
le as
Ġpinans yal
na te
ĠO K
Ġp ayag
Ġc ong
imb ag
ish ed
let in
ĠSh aron
Sinas abing
Ġsa sa
Ġkandid atura
b ub
ĠS AL
... "
Ġact ually
ĠCr oss
Ġresp ect
r or
ĠN on
ĠL otto
ĠUnivers e
big yan
iklo p
Ġlap ad
Ġtonel ada
ĠG in
ĠAdd ress
utonom ous
s ahan
Ġp adala
ĠNo on
Ġsement eryo
Ġis ara
ĠK to
Ġnak alaan
Ġnakik ilalang
Ġtip an
Ġs ection
int ana
D ILG
Ġt ugunan
ĠN agd
Ġsum igaw
Ġcl os
oper asyon
Bin anggit
kl usyon
ĠT ool
Ġf ur
Ġpangk ap
Ġhap pen
Ġnagbab ala
ĠRad io
Man ila
Ġrequire ments
ĠGriy ego
Ġr ab
lam ation
Ġpand emic
ul uto
Ġpag rer
are ha
ĠAw ards
ĠAS G
Ġvacc ine
ab atang
ed ding
Ġmagk akasama
Ġschool s
ĠGold en
Ġlab el
Ġpum utok
Ġ5 1
Ġwe ight
ĠSing son
ĠIl igtas
Ġg iven
Ġpres ensya
did ato
p ond
ĠA i
Ġbin ibig
ick s
erm ark
Ġpagkaka ibigan
Ġdead line
ĠG reat
ĠEd g
Ġkaib ahan
ĠBro ther
Ġemb ahada
Ġp ension
Ġl ady
Ġnang ako
Ġa uthority
art en
uris ima
Ġnuc lear
Ġmal utong
ump akan
ĠAr thur
Ġnagp apag
ĠUS T
Ġhang ad
qu o
Ġkump etisyon
ograp iya
ut ulungan
Ġina n
Ġtagapam ahala
Ġb ike
let ter
Ġfac ebook
ĠEl ias
Ġcryp tocurrency
up il
Ġmagp ahayag
Ġr ank
Ġmak ilahok
Ġnagd esisyon
F i
Ġm ix
Ġpagkak ah
Ġh op
ĠInt sik
ĠMakap angyarihan
Ġkum ikita
Y A
g i
Ġev idence
f ol
s elf
P inang
at itis
uh ula
ĠCab inet
ano on
Ġpagk astigo
ĠCol lec
ĠStr ip
ĠS orsogon
ĠAt ienza
Ġsinus undan
Ġt emplate
Ġh ub
us bong
uk it
Ġpigment ed
ĠT er
ĠIs in
Ġuna han
Ġbinat ilyo
ĠB abae
Ġpagh awak
Ġr iding
ĠIs idro
Ġpagd alo
Ġmag ug
Ġr it
Ġpas ahe
ĠP ab
Ġup od
amang ha
Ġtur n
Ġlum ilikha
Ġfor ward
ĠTur key
ĠQui apo
Ġ ere
Ġt anod
ĠB is
eh old
man uel
Ġpin irmahan
Ġsag lit
Ġk no
Ġpagw awasto
ĠD igma
ĠK oh
Ġmak ulay
Ġcr ush
ĠNav otas
ĠK aka
Ġpas ukin
ĠDing dong
f ield
ĠF rench
ĠRic ardo
Ġaudi ence
Ġga na
Ġpak pak
Ġek olohiya
Ġdel ivery
Ġse a
Ġdef ense
indi hin
Ġw orth
Ġnak uhang
ĠEd win
Ġmanusk rito
H i
ĠS aint
im it
Ġpana n
Ġpags apit
rat ikong
Ġhen na
P inay
ĠD Z
Ġp ito
un ing
ĠK ilala
ant ika
Ġpags alakay
Ġtour ist
ĠShang hai
Ġend ors
Ġrebolus yonar
ap ano
Ġart icle
Ġkalak asan
div ision
Ġnakat akas
ond uct
ivers ary
ĠLor en
al ahin
Ġpina pag
.... ...
ĠTok yo
Ġpinakama inam
Ġ uso
ig nat
Ġkina ilangan
Id in
Ġtop ic
drol iko
ah alagahan
us ob
ĠF B
Ġad h
ĠPD P
Ġd raft
ĠC ubao
Ġbum ababa
enc io
Ġnakak ain
Ġsol on
ĠInter nal
ĠNo el
Ġnetwork ing
Ġf inals
Ġdal uyan
Ġmagk ap
end ahan
sc on
Ġb orn
Ġt apang
ul s
Ġnapak ahusay
Ġdepart amento
G amot
ĠT oto
ĠAb ante
Ġnapak aliit
Ġpre vent
Ã± ol
ĠSor iano
. (
Ġgr and
Ġprotoc ol
Ġok ey
Ġeng kuwentro
ĠP ia
ĠP urisima
im al
ys is
Ġpanin iwalang
ĠBraz il
Ġpam ant
Ġhel icop
ĠMaj or
Ġkomers yal
ap t
sh are
ĠAmer ikanong
b isa
at ro
ag ham
ug u
Ġv er
ev ard
Ġmakapag kolehiyo
il ino
Ġpro ceed
ret ong
ĠRom an
Ġmagka ibang
ĠAr g
Ġshort s
Ġnag alit
ĠW all
Ġunt il
Ġt ok
Ġt anga
Ġkat agang
ĠY outh
kas unduan
Ġisinas agawang
Ġm igs
ĠA K
Ġle ft
IS T
Ġih ayag
ĠA bi
ĠKah ulugan
rop ical
Ġch oice
Ġnah ahati
at ely
Ġbum abagsak
Ġadv is
Ġl ulan
ĠE hipto
Ġnakak akita
Ġâ ĨĴ
ĠDum ating
Ġkahal ili
6 5
int ang
alik ha
Ġmakak ain
Ġkontrobers iya
M ed
Ġmagb abayad
Ġb alang
ent r
ĠI vy
Ġpagpap lano
Ġnagmam ay
ĠIns urance
Ġkin ikita
Ġent ries
Ġk re
ĠB agay
Ġtemp orary
b ishop
Ġt utol
Ġgu ys
reh istro
ĠDag li
Ġantib iot
R oma
i usap
Ġc in
Ġumi inom
m ita
Ġkaw ili
aprub a
ĠB oul
Ġpagk araan
ĠAl m
Ġpamb ob
Ġkong k
ĠAma zon
ĠArt ikulo
×Ļ ×
ĠS AP
ĠS limming
ĠB un
Ġdr aw
Ġnar in
ĠPC G
ĠEle na
m ata
Ġs n
iy aga
Ġib asura
Ġpagt aya
ĠMa e
Ġpagd adala
ĠAp pe
ĠWork s
Ġkinasas angkutan
L unas
Ġb isan
Ġding ding
Ġ !
ĠJ olo
alig id
Ġb abaw
Ġik ab
Ġd uha
ob a
Ġst reet
Ġgr abe
Ġinst ant
Kam akailan
ĠPros ecutor
Ġlum abag
ĠSal omon
Ġpagkakas ala
Ġprior ity
Ġpres scon
ĠKlas ikong
0 3
Ġcon vers
Ġgan ang
Ġnagw agi
Co V
Ġf avor
unt ento
ĠMari ano
Ġfam ili
h anga
o or
Ġmal alakas
op ol
Ġmap apat
Ġfor ces
nak it
Ġhon or
ĠTor res
Ġconcern ed
Ġmakapag bigay
ĠLag man
ĠMas bate
organ isa
al ungat
Ġw ord
Ġbuh angin
Ġtum alon
Ġpagt ubos
Ġgum anap
end or
Ġmags umite
awag an
M PD
Ġkap istahan
ĠMom my
Ġumano y
Ġco up
Ġda ug
ĠCar lo
Ġkadahil anang
um iti
ĠG PS
ĠCh ampion
ĠBu ilding
Ġput ik
ĠAlex ander
ĠNCR PO
ocon ut
ĠP il
ĠD ad
ant abi
Ġexp ress
Ġp alam
ĠS O
Ġst udy
Ġmagh ah
0 8
Ġ ice
Ġmal abo
ĠJan e
Ġampo ules
Ġma apektuhan
Ġwe ather
rob lema
Ġkompl ikasyon
ĠM ukha
ip ol
if orm
Ġdo ing
ret iro
ĠPro vince
Ġla unch
ĠB inig
Ġmal alayong
ĠW i
ĠNa i
Ġpol y
r ina
Ġs ant
Ġs ugo
Ġp uhunan
ga da
Ġsum mit
Ġ5 4
Ġme ans
ell s
unt ong
Ġpasan in
7 8
Ġsak ali
Ġactiv ity
ĠM amas
Ġas ero
Ġpagtat alo
Ġpalag uin
ĠChristop her
ĠPu erto
Ġrel ig
Ġbal ahibo
Ġnab atid
Ġpagsas ara
ĠKas o
Ġbet ween
ĠC E
ĠR E
Ġsum pa
Ġap pe
um n
ĠH at
Ġmak ulong
imb ento
Ġmags abi
ĠA dam
ri age
ĠGil as
ĠR al
Ġas no
Ġmap ip
Ġmang olekta
Ġemos yonal
ĠC ory
Ġmam uhay
Ġcar rier
Ġsusp ensyon
Ġpict ures
Ġkit ten
Ġm i
us lit
Ġmang ing
aliz ed
Ġpampulit ika
ĠDet ection
ĠKat ulad
Ġhay droliko
HIN DI
P IN
T hat
Ġl oss
ub ukang
ĠMich elle
ĠCin ema
h he
am s
Ġnag agamit
el do
Ġj unior
ĠR P
y agan
Ġp ond
al ar
industr iya
Ġk oryente
Ġma ipat
ec o
Ġkam alian
ens es
Ġdi retso
Ġmagp asya
Ġprop er
Ġkontr ab
Ġd og
ig in
ĠS ent
Ġnak uk
Ġde fault
Ġtina trato
Mah igit
ip ikado
Ġmak alabas
Ġpagb ati
Ġmagt agumpay
ĠPat rol
Ġtrad ing
Ġimah en
Ġkand ila
Ġinclud ing
ĠL ito
ĠMo cha
ĠEl ement
Ġtig nan
ĠS eg
alag lag
Ġbalik an
Ġt uro
Ġbas o
ĠQ atar
w il
Ġna uwi
Ġpalig uan
Ġh ahanap
mang an
Ġnakam amatay
6 8
Ġd ress
Ġcalam ity
bi a
Ġnags ilbing
Ġpagp indot
oh o
Ġt ing
Ġpag ibig
Ġkum akalat
Ġmus ta
Ġhorm one
ĠAqu ilino
Ġhorm ones
Ġchalleng e
un ity
ik aw
he a
Ġsin ubok
ay om
ĠD ok
Ġkat umpakan
Ġmab abasa
Ġgam ing
ĠVill age
Ġsel ula
ĠInt elligence
M y
ĠW ika
ĠGal ile
Ġd uda
Ġres ources
Ġmagp ahinga
Ġsab aw
ĠDang erous
w irang
Ġ q
or al
os y
ĠF olk
Ġimm igration
ĠB erna
Ġpat ong
Ġpl aka
erg arten
ĠBoul evard
Ġf un
ĠPro bins
Ġmagl akad
ĠBe ach
Ġ inas
Ġb ow
Ġsc andal
am mad
ĠH aring
Ġkat apat
ĠNag b
Ġpags ubaybay
Ġkap angyarihang
Ġex tract
Ġab uga
w ear
Ġcon tribution
Ġnagtat aka
Magug unita
Ġb acter
Ġgum astos
ma abot
Ġ& #
ĠDO Tr
ĠJenny lyn
res ign
qu arters
ĠSalced a
f ia
am ahin
Ġc ake
ter ya
Ġnakal ap
Ġlog o
Ġb ik
ĠL aban
Ġkab ayaran
Ġpos te
Ġad just
ion es
ĠG ary
d on
ĠM alou
ĠH ead
L ayunin
in ed
Ġf igure
ras h
Mad alas
Ġimbit asyon
ungk ahing
Ġsak o
Ġsur v
e z
ĠS akit
Ġpart isip
ĠChar les
Ġt om
ĠTr ib
Ġmina maneho
ĠMamas apano
Ġp ederal
Ġsing sing
ĠComp rehensive
Ġcompet ition
Ġh ib
Ġag enda
T e
Ġbalak ubak
Ġsw eldo
Ġkabal igtaran
ĠA udit
ulat ed
Ġpagsus ulong
ĠG as
Ġpina na
Ġtumit ingin
m iss
Ġn iyon
ad es
pap uti
Ġal ikabok
ĠLuc as
ĠM t
ut unan
Ġpagk ukulang
ĠJ ude
ubl iko
Ġkamang ha
ĠðŁĻ Ĥ
N O
R el
l alaban
ĠL upa
ilis an
Ġsay aw
ĠAR MM
ar alang
ĠG abi
Ġiy ang
Ġik inam
Ġun iporm
' ll
Ġil alabas
com ing
T ag
f il
Ġm ir
Ġc ycle
Ġmas ikip
uro t
Ġmaj ority
Ġp ista
ah intulot
ĠFran ch
Ġall ergy
na y
Ġt uruan
ĠL ucky
AR I
ĠJo int
ĠPamam ahala
f l
ĠRom ulo
ĠLas er
Ġpangg ag
Ġbark ada
A mer
Ġd oll
alam uha
ast ian
Mag andang
ĠCB CP
ĠL ong
Ġlo h
Ġpr ize
Ġpagkakas angkot
Ġmangang alakal
Ġh intayin
um ig
ĠA M
ĠF ederal
Ġit akda
Ġnags asaad
amb ay
Ġkak ayan
Ġmak ag
Ġsag ing
ĠB log
CO R
ĠCongress man
Ġorig inal
ana hon
up as
abaw as
it ic
Ġh atid
Ġmakak ap
Ġkomun ista
m ates
op eration
Ġnap akat
ĠAll iance
K al
Ġt ug
Ġkam usta
Ġnas awing
ĠEd gar
Ġbigla ang
g iliw
ad aan
av y
alin langan
Ġn yong
Ã¡ ng
b ling
ug ulo
Ġtul uy
Ġnakat ulog
ĠAg reement
Al l
Ġindi vid
ĠPe ace
ĠPet ron
Ġna id
ĠC it
lob an
ĠSub ic
Ġprib ado
Ġmagm ula
Ġesc ort
ul ila
re f
ĠE b
ĠF inals
Ġban dido
Ġpinakam araming
Ġstr ike
we ight
ĠS ociety
und uang
Ġsan to
Ġpagbib itiw
Ġs om
ĠM es
Ġkas uotan
Ġso und
ok us
imb a
ach ed
bas ta
Ġkumpirm adong
f it
n ish
ak op
is sa
ĠK ol
Ġgel atin
Ġcab inet
ĠM uh
ko v
Ġbil in
ĠAppe als
s akit
Ġko mb
Ġnad ama
Ġnagngang alang
ĠF M
ump ong
d ec
os ong
Ġma igi
Ġs weet
The y
Ã± ang
ĠR eh
ĠF lo
Ġpaghah ain
BI G
ĠCab anat
Ġpagt upad
Ġcard s
ĠOlymp ics
hek ut
Ġsa ang
Ġit uro
Ġcom ments
Ġimp er
pas alamat
Pagd ating
Ġk ahatulan
s ide
ir ito
Ġsus undin
Ġ6 4
Ġpuw et
ĠKal usugan
end s
ondo han
Ġcy st
Ġm ilya
ob e
Ġmat uklasan
alak ihang
Ġto uch
Ġpanghim papawid
f ord
Ġm l
ol os
ĠAnd aya
s u
il iran
ĠS ib
Ġnagb abasa
ĠPad re
Ġna ih
c ustom
v d
Ġko med
abang o
Ġsal ot
ĠBe a
na cio
il er
ĠD ownload
Ġpinakam aliit
ĠBr ig
Ġnai ulat
Ġung g
Ġmananal o
s amang
he ad
lim ang
il ma
ĠF idel
ĠU g
Ġmin utes
Ġref und
Ġm ol
Ġkat anggap
Ġshow er
edy er
part y
Ġnagl agay
Ġrun ning
ĠT oy
ĠH ebreo
Ġnat akot
Ġpinang ang
ĠNav arro
Ð »
ap s
Ġf lax
inig il
Ġ6 7
Ġkorap syon
T agalog
x id
Ġtal unin
ĠMags aysay
Ġsinasak yan
am ahalaan
ĠA D
ol is
ĠD ugo
ĠTim oteo
r ig
Ġt usik
Ġmag as
ĠK er
ĠB atan
Ġpak ay
Ġprot ection
Ġd ance
ĠE z
co very
Ġmangg agamot
Ġsinam ahan
Ġd eta
Ġmo ve
ĠJuli us
ĠBeng uet
el ya
ĠZ arate
Ġk una
Ġnak atingin
ers ang
ĠSh op
Ġrequ ired
Ġr anggo
ĠF u
Ġikinam atay
ag ed
ĠH anapin
mit h
Nang ang
IV E
k ab
est yon
imb ing
Ġkina katawan
Ġpropes iya
Ġmamum uhunan
with draw
b ro
al ib
ĠA f
os asyon
ĠS EA
ĠSh ine
yn th
Ay aw
Ġmeas ures
Ġg it
Ġg rowth
ut ical
ĠH ard
ĠArch bishop
ĠPla za
y enda
Ġmag awang
Ġkap amilya
Ġpangang alakal
nar yo
lo hiya
Ġear ly
N an
Ġt ono
inaw ad
Ġkomp rehens
Ġordinan sa
m g
Ġb eh
ĠR TC
Ġpina hih
Ġdal i
Ġex emp
ĠAnd rew
Ġdad aan
Ġpus ong
Ġswim ming
Ġkar ayom
unt ik
Ġcl ick
ĠRe al
MM DA
Ġpus her
Ġpanun ungkulan
ip ika
ĠF DA
Ġtr ail
Ġim medi
Ġmad adala
ĠBo x
Ġidin eklarang
ĠRad yo
ĠGreg orio
Ġm el
il bihan
Ġay oko
ĠD ati
ĠK AMI
ĠT here
Ġmap as
Ġpre vention
s ung
ĠC u
Ġip akilala
Ġnags ugo
Ġi iwan
igh atian
Ġad ik
ĠSu arez
ĠHot line
Ġth ough
Ġ8 00
Ġhil era
Ġbol unt
D in
Ġtin ta
erm o
na st
Ġl ungkot
ĠN iger
Ġro bot
ĠAngel ica
ĠP and
Ġmais agawa
Ġengine ering
Ġh aw
Ġh inab
Ġkag at
Ġpamb ihirang
Ġmagdam ag
6 00
ĠP ep
ĠG uang
Ġcon duct
ugh t
Ġret ire
ar et
Ġpagb awas
Ġkal okohan
Ġnags it
Ġnagp up
ĠTr ad
Ġmilit anteng
impl es
say t
ap aw
Ġpinag daanan
ĠKar anasan
Ġpangm atagalang
Ã ¼
Ġb ibili
ĠA ch
Ġin utusan
Ġsub aybayan
Ġisin ilang
ER S
ĠKag amitan
ĠS uso
Ġpr osesong
ĠGent il
t ap
Ġma itim
Ġina alam
ĠMag l
Ġmin ing
Ġl ol
angg at
ĠAr m
Ġimbestiga dor
om y
Ġnakak ag
Ġsam bayan
Ġcomm on
Ġtraff icking
Ġpinakamab abang
×ķ ×
Ġdi re
ĠEm manuel
Binig yan
I natasan
Ġnakal ilipas
Ġexp ect
ari um
Ġmab ago
inis enyo
Ġlimit adong
ĠT atay
Ġr ule
Ġmam antika
Ġpack aging
Ġtechn ology
ĠGabri el
z ation
ĠB alik
iv el
Ġnakat ago
Ġtap eworm
Ġmet ers
Ġmakaka apekto
ĠPers onal
ungg ali
alam hati
Ġsal in
Gan ito
Ġmag netic
et r
Ġpagp utol
ĠEr mita
Ġimmun e
ĠH inah
Ġan yong
Ġpal apit
Ġch urch
ĠM ahusay
ĠM aliit
Ġt v
ĠI pag
Ġup d
ind uque
Ġtagapag salin
Ġrelations hip
ig en
Ġkin ilalang
Ġ alagaan
alang in
Ġmar ahas
6 7
i ans
Ġ ubos
Ġy ari
Ġtit igil
Ġul am
ĠTha i
ĠPamam agitan
b lock
u ulat
Ġnak agawa
Ġit inago
Ġtumut ugon
ulit in
Ġbak uran
ĠBag ama
Ġsis imulan
rest ado
Ġt l
ep ensa
Ġkap ana
Ġprop os
Ġpost s
Nakat akdang
et uhin
Ġ8 5
asak op
mang hang
ww w
W ika
Ġg ug
ĠW ikang
ĠAssist ance
Ġar ound
Ġsex ual
Ġkontrol ado
ĠPana nampalataya
Ġik alimang
Ġform er
inala ang
Ġpilosop iya
abilang go
ugh ter
Ġhumih iling
ĠTon y
Ġrenew al
Ġdoc ument
Ġarr ival
ro te
Ġga bin
ĠMar vin
Ġbas ed
act ive
Ġblog ger
Ġm angga
up grade
Ġan no
Ġeksak to
Ġpar ok
ĠH ous
Ġap ely
Ġkump anyang
Ġtit ingnan
Ġmagsis ilbing
d ali
Ġg ising
ĠB road
Ġkin ukuha
Ġamin in
ĠMo ab
ĠRal ph
Ġm echan
ĠA uto
Paras ites
Ġp lease
Ġd ust
Ġnat uwa
Ġneg ot
Ġmom ent
Ġo g
Ġr andom
Ġnagk alat
akita an
ĠGina gamit
S p
il ihin
as ong
Ġu uwi
ĠKam ay
Ġemploy ment
t ake
Ġat hlet
ĠP ob
Ġsen yales
ĠCabanat uan
1 50
Ġmat alo
Ġsec ure
ĠAy ala
ĠGu ill
ĠBum ili
Ġsat is
l ate
Ġlam ig
Ġbanggit in
Ġabuga do
S an
t os
Ġs werte
it ime
ib hasa
and ong
av ing
Ġnaga mit
Ġibina ba
ka ibigan
Ġop ening
Ġpinak ap
Ġlandsl ide
custom ize
Ã ł
Ġp irm
ĠD ust
Ġhum awak
Ġsab on
Ġbenep isy
Ġdis count
ahing ahan
ar est
ing ing
Ġf ix
Ġqu ality
Ġpamp al
ĠSum ulat
Ġfe es
Ġveh icle
Ġguw ard
Ġnip ples
ĠR us
Ġlum a
th orn
Ġpagtat anong
ale on
Ġpulit ikal
Ġin isip
Ġsambayan ang
is ama
ĠBum alik
Ġindivid ual
ad ulas
est yle
Ġmar irinig
ĠChar ity
ĠPi olo
Ġmunisip alidad
ĠSund ay
) ,"
c ano
Ġgr ado
ome z
Ġkas ali
ĠPh ivolcs
Ġkumpl ikadong
Ġkidnap ping
c ont
w h
ĠF our
yan ig
Ġj oke
Ġest ate
Ġbal on
pr oseso
Ġkont eksto
Ġadvert is
usga han
ĠSW S
Ġh ips
ut al
act ivate
Ġqu ot
Ġklas ikong
am ayan
Ġel ev
Ġen for
Ġâ Ħ
ĠTac loban
ĠTrin idad
P E
Ġp ics
Nak ak
Ġk ikita
Ġo toridad
ch or
ĠCh ris
Ġnaw awalan
G MA
e ff
ir ya
Ġunders tand
Ġgabin ete
t ingnan
ĠB ise
K AT
Ġar bit
Ġbum ibili
Ġnanin iwalang
ĠAlb ert
L C
ĠB awat
ĠJ V
Ġpagtat alaga
ĠNak ikita
s aring
ĠP anat
ĠK il
Ġf all
Ġme et
Nag pap
ĠJan et
Ġs iling
Ġnat uloy
ĠSo ft
ĠCook ies
Ġdad alo
f oot
s ana
al isa
Ġpro c
st ong
Ġapp le
B TC
g ood
i ipon
Ġmad ami
wit zer
inc t
awak in
Ġpans amantala
xy gen
ĠPrin cess
ĠĠĠĠĠĠĠĠ ĠĠĠĠĠĠĠĠ
Ġk eep
ĠI B
Ġpinaka unang
Ġarm ado
Ġnapa ulat
tal ion
Ġd uk
ĠM AG
Ġmal upit
Ġmin i
ĠPas s
Ġn ut
ab utin
ĠT ed
Ġdumad alo
rastr ucture
l ant
t indi
w akas
Ġp ust
ĠC II
Ġe arth
ĠC EO
amb ala
ĠX i
Ġmakik inabang
S am
aba on
ara anan
Ġtel evision
mosp her
t ional
ĠK e
Ġpana natili
ĠV era
Ġdi et
Ġkon yak
Ġtumat awag
Ġrespons e
ĠPasc ual
witzer land
C ar
Ġk rist
ĠA sp
up er
Ġpagk onsumo
Ġina alis
urs es
Ġsl ot
d agat
Ġs le
Ġpagb a
Ġyo do
Ġpagkab igo
ĠCard inal
ĠHil agang
s id
ĠK adalasan
ĠN aga
ĠT inanong
Ġisa ilalim
Ġpagsas ampa
Ġsap ilitang
a i
c raft
Ġp ano
ub an
ĠF red
qu alif
Ġh ati
or er
Ġr ansom
op ecia
ĠMa ine
Ġon ce
ors e
Ġopisyal es
Ġdok ument
Ġmaka uwi
Ġsert ipiko
Ñ ĥ
Ġf estival
Ġa er
tim ize
pat upad
Ġmakik itang
a ayuno
at asan
ĠE duk
ĠPam ahalaan
ĠWar riors
v ille
Ġ enc
Ġt inaw
Ġorgan is
ĠMagd alo
an tot
as id
ĠI kalawang
ĠT R
Ġnat ukoy
ĠWe ather
ĠAlf redo
Ġb ond
ine z
ens o
Ġinak usahan
Ġra id
Ġfec al
ĠP inah
art s
Ġimport ant
Ġkalend aryo
âĢĻ .
ĠLand as
s App
ĠN ob
Ġnagb ayad
Ġdr agon
ĠFlor es
em s
ult ahin
ex as
Ġginh awa
ak una
Ġpro vince
Ġal opecia
ons o
sh ow
ĠBas ketball
Ġmaip akita
Ġm ego
ak h
Ġap rub
Ġfac ilities
Ġstor ies
R udy
Ġp urong
Ġt inak
Ġkina g
ĠLe o
ĠG O
Ġpareh as
ĠLag ing
ĠRev enue
w o
om m
Ġpro paganda
Ġum amin
Ġth ing
Ġco unsel
ier da
ĠSeb astian
Ġpin ong
Ġp iy
on y
Ġd one
us isa
row se
Ġcirc uit
ĠMalak anyang
Ġk ub
Ġk ulot
ap astangan
Ġkonsult asyon
y erno
at is
ĠR ow
imb al
tor ney
Ġpap ayag
Ġpap arating
Ġmagb ahagi
Ġout break
Ġdoc uments
iy aw
ub ot
Ġpro cessing
Ġnab ili
alitang hali
Ġbabas ahin
e ebanghelyo
Ġt igas
ic am
ĠMag ic
ach el
Ġisk olar
Ġsumasak law
% ,
ï ¼
ih ingi
Ġlis ensiya
M ab
ĠM ahalaga
Ġpan onood
Ġpres into
Ġpagpapat ayo
Ġeksp erimento
Ġhanap buhay
ang er
Ġnang h
ĠSa fety
qu est
Ġkina kal
Ġhard ware
s ec
ĠAg ustin
Ġkons ehal
ig lang
Ġg ayunman
Ġam p
Ġmap ahusay
Ġon ych
Ġpw et
Ġl otto
ĠB eda
Ġop tion
Ġnags ilbi
ĠPl us
e en
Ġp urs
Ġrom ant
r ight
Ġ uring
Ġsin unog
ĠNg ayong
Ġdevel oper
Ġinvol ved
ib ok
ĠB ers
Ġak siyon
Ġbat ikos
man ong
Ġnaw asak
pos ed
ĠBac olod
al aysay
ĠK ump
eh ouse
Ġsis id
Âł Âł
lo ve
ĠV an
Ġnagpap ak
alay as
Ġpuw it
Ġbina ry
Ġr if
ran ce
Ġnagsis i
Ġbook ing
Ġcosmet ic
ĠK ak
Ġmags unog
Ġ7 2
ap ter
Ġkap arehong
inis h
ure l
Ġpakikipag laban
ĠCII E
b ody
i ento
k on
en do
un la
ĠS qu
ĠD elf
amang hang
asan ib
Nag babala
udy ok
Ġros as
Ġal p
Ġy elo
inah ayag
Ġtalam pakan
worm s
Ġna abot
os an
ump it
Ġmaip aliwanag
Ġkin ita
Ġbinay aran
i que
Ġpam pang
Ġnapap ansin
osp ice
Ġusap ang
Ġnakakat akot
E h
s chool
ar ay
Ġh arang
ĠLac ierda
Ġbalak ang
ĠMin istro
Ġhag upit
R eg
an on
Ġb uti
ĠN eri
ery oso
ĠComm ander
Ġhinih ikayat
Ġalm usal
kah it
ĠS S
Ġ7 6
Ġpambob omba
P ak
Y AN
Ġm insang
ĠY as
Ġdep loy
g alang
Ġp orma
Ġus ed
l aan
Ġm m
Ġb abag
Ġd aga
Ġmo uth
Ġsh ell
mospher ic
Ġt indi
Ġmap uti
ump uni
Ġkak anyahan
Ġpagkain tindi
Pinak am
Ġlum ubog
inis ita
Ġeffect s
Ġtour nament
Ġnags ipag
ekt ura
Mag bab
Ġig inawad
a angat
ĠD ata
ĠD agat
uc as
Ġcl ot
ul gar
ito l
l ump
Ġm um
Ġsa le
Ġpag awaan
ĠA ward
ess ment
Ġhating gabi
& #
Ġp ayat
Ġkat wiran
Ġnags il
Ġkak ampi
Ġsug al
Ġninak aw
b ilang
ip al
ĠH oly
Ġan ime
isip ang
oo oo
Ġfriend ly
ĠPinakam ahusay
ĠD iwa
ĠC ad
ata e
Ġkon klusyon
ĠNet her
pana bik
ocrat ic
ĠLoz ada
k asama
Ġt adhana
ĠB y
Ġpagk apang
Ġbe ar
Ġpatn ubay
A ct
d ok
ĠB ansa
ind ak
Ġhumah antong
Ġ unan
Ġb ulong
toto hanan
ĠBin uksan
other apy
Ġpartisip asyon
Ġn man
ĠAdministr ator
Ġkina usap
Ġ5 9
gr ad
Ġipina sa
Ġdok umentong
Ġmagl uto
CA A
Ġcease fire
Ġequ ation
P R
Ġsol o
ĠJo e
as dan
ĠL egal
Ġnakak araan
Ġ9 5
Ġih anda
Ġadv oc
ĠKristiy anong
Ġopin ion
ĠIm ee
Ġto x
Ġv endor
Ġkum portable
Ġcon do
Ġro ot
Ina asahang
Noy noy
gam ento
Ġf em
pl er
ump tion
Ġnagl alabas
ĠZ ha
Ġlaw yer
ed ukasyon
ĠL A
Ġnagpap ahayag
isin ungaling
T ila
ĠN ormal
Ġkap us
ĠAn umang
Ġ199 8
Ġkumpirm ahin
i iba
amp anan
Ġsam bahayan
ĠCo alition
Ġpand araya
islat ive
A pat
Ġd oble
ano mal
ahat ol
Ġsin ugo
Ġpagtit iwala
Ġkind ergarten
D ibdib
Ġpagk awasak
Ġmap alakas
ĠEl len
ĠAustr ia
Ġbroad cast
B ahay
k aka
uk ing
y ap
Ġna intindihan
Ġpagpap aliwanag
pek tibong
ĠJe an
ĠSM S
ĠJa ime
il ong
ĠD I
Ġnagb itiw
Pag b
ĠLorenz o
it ch
ĠM AR
ĠMar induque
Ġbas ang
Ġnangang aral
Ġrum es
ĠE ph
Ġman ual
ĠMe ga
Ġanalog ues
Ġbent ahe
ed es
ign ment
inah al
ber ry
Ġhost age
Ġdelik ado
Ġl uto
Ġw rote
Ġman irahan
Ġgag anap
Ġinil athala
Ġreh istr
ĠPant aleon
rerek lamo
j an
ah abang
f ocus
Ġpana g
oloh iyang
ĠLe ague
ĠSe ason
Ġimport anteng
ah ol
Ġpina r
ess or
Ġpas imula
Ġtangk ilik
Ġn yan
Ġka unlaran
Ġmal igtas
Ġteam s
Ġka inan
Ġre ward
Ġmat h
Ġmat ch
Ġ ~
Ġs ense
on ology
ne o
Ġsinus uri
Ġnaghah anda
Ġtrabah ong
weep st
c ular
ak pan
Ġmotor cycle
B ato
Ã ¶
eb ra
ins ula
Ġbuk ol
Ġkandid atong
Ġec onom
p p
Ġh ip
uk ulan
ac es
ĠE CQ
Ġkap arusahan
Ġnab abasa
ot ong
aham akan
ĠFa j
O k
en er
Ġnag ising
uk om
ac ity
Ġre pl
Ġpl a
ĠMar ine
ĠCol oma
Ġ6 6
Ġsan libutan
ĠKas aysayan
Ġget ting
K S
Ġt oll
ch ain
Ġcon tainer
ĠProf essional
l s
Ġph ase
Ġnakar inig
Ġhina ing
Ġpagpapal aya
Ġinis yu
Ġbinaw ian
a ang
ing it
Ġkum ak
Ġst roke
Ġmaik li
G o
I ka
ĠR uff
Ġsum asa
ĠRom ual
ĠS is
ĠD ur
ĠI log
Ġkump iyansa
Ġnad arama
ĠMalaca Ã±ang
ĠM undo
ĠE N
amp ahan
Ġhand ler
ĠĠĠĠ ĠĠĠ
Ġm anga
Ġpangkap ayapaan
Ġpag res
ell ite
ĠNether lands
us i
ir ming
Ġreal idad
ĠFlor ida
agsik an
u usig
Ġpas alita
I O
Ġd inam
ĠU fa
Ġts ismis
Ġinak ala
Ġd ig
Ġh ero
Ġman ila
Ġpart icular
pal ad
Ġband ed
Ġpaki usap
Ġkasab wat
P an
Ġnam ay
ac i
iyak ap
ĠMat at
Ġdeb oto
ĠDelf in
Ġnagk ita
ĠZ hong
Ġkat uparan
ĠU ng
Ġpagsas abi
ĠChristop he
Ġna isipan
um ungkahi
Ġg re
Ġw alo
ĠJ ol
Ġal leg
Ġulit in
ĠPum unta
h iwalay
agan ang
Ġiisip in
Ġw ords
em er
Ġnap ilitan
Ġmakak amit
d rop
em en
Ġga wang
Ġhang ing
NA IA
ĠLang is
l ife
Ġm angk
int indi
Ġnas unog
la o
Ġbina sa
ĠRob erto
Ġdisk wento
8 7
P re
ĠC AR
Ġst udio
Ġab utin
Ġkil usang
Ġbel t
Ġb ana
ĠK O
Ġsal es
ump ayan
Ġ9 9
Ġsa w
un urin
ot os
ĠO S
Ġkar nar
ĠMe di
Ġibin unyag
Ġma id
ist or
Ġkap ahamakan
Ġsak tan
ĠAs tronom
ĠIna asahan
ĠCan dida
ĠBre ast
Ġmag alit
og ether
Ġpre lim
ĠCal ida
amas ahin
B U
es y
Ġal itan
Ġhal in
Ġco ast
Ġyo uth
Ġsamp ahan
Ġat r
Ġpag re
ĠT ESDA
ĠL alaki
Ġpanl asa
ĠIsa ac
amis il
irerek omenda
B agong
ĠM ath
uk ala
Ġst ars
Ġtrans mit
Ġhina nap
Ġaff idavit
Ġkabut ihang
Ġhumah awak
WAR NING
as m
Ġtr ich
qu el
Ġkar on
Ġpin ilit
kat long
Ġnegos asyon
AT O
Ġpropes yon
ipis yal
Ġbih irang
Ġpagpapag aling
Ġpu ede
ĠBib ilya
B aka
ar r
ĠM alay
Ġpar ing
Ġre y
Tinat ayang
Ġmat alik
Ġde v
Ġtal ino
Ġbinab anggit
Ġrecord s
hekut ibo
ĠM i
Ġdal um
Ġnapak al
Ġmil yun
Ġseg ment
Ġchar ges
Ġmak ing
Ġcl ip
Ġisin us
ĠP ing
ĠG et
mun uan
Ġwith in
ĠBatan es
! )
s m
Ġay un
Ġmak aranas
Ġv enue
Ġret ir
ĠOl iv
Ġrat io
Bit amina
Ġbenepisy aryo
M eron
Ġka aya
Ġmas asak
Ġpalat untunan
Ġcorpor ate
ĠR u
ĠPang kal
udy at
Ġuma alis
Ġmakapan iwala
ort ion
Ġpagpap asya
Ġlaw ay
ul unsad
ĠK ita
Ġpagb utihin
Ġlab asan
Ġpags alubong
Ġkum ik
MA T
ĠIS IS
Ġimin ungkahi
Ġmak ati
int uan
Ġmagb enta
ĠComp lex
ĠH angga
Ġpan iwala
ux ury
Ġlumal abag
Ġconn ection
Ġultr asonic
ĠD IY
Ġpers ons
Ġnakab in
wit ch
O h
m ura
Ġpag anahin
ĠN LEX
ĠF IBA
akat wid
Ġpagsus umikap
Na i
ĠChar ter
ĠFam ily
ĠM ayon
Ġpa alisin
ok a
Ġma ong
Ġmab atid
Ġreb olusyon
ĠPam ahalaang
T ama
b ul
iy eta
ĠAr n
ĠMa aring
ĠBe er
Ġterror ist
Ġnak umpiska
Ġe ach
ĠO ur
Ġpat ayan
Ġpas away
Ġso fa
umpis al
ĠBac oor
ĠJosh ua
N agd
Ġm eter
ĠP MA
Ġmait at
Ġmoxx x
u er
Ġmat anggal
ĠF air
unit ies
Ġnina nais
ikayat in
ĠBat talion
il ayan
Ġdis trib
ov it
Ġsumas ampalataya
ĠTab let
umbins i
Ġp y
Ġwar ning
ĠAT M
kum ulang
Ġbag ahe
Ġbak terya
ĠIsa ias
6 9
ĠN iz
Ġkas iya
Ġrespons ibility
Ġpatut unguhan
ĠEdg ardo
Ġko operasyon
Ġmab ab
Ġpal awakin
Ġkol on
ĠGan un
Ġpaghih igpit
er ic
ari as
Ġnap ab
Ġsh o
Lum abas
l anay
to v
Ġpags ali
rot esta
Ġdik t
K uwento
Ġkar gamento
Ġmad ugong
Ġmakat arungan
K ar
à ¸
Ġh irit
ĠS oho
Ġtrans lation
Ġpagpapal awak
Ġvol ume
k ilala
ĠA ra
Ġnam a
Ġtest osterone
Ġgrad uate
quir er
Ġs int
ĠS imple
Ġin de
Ġmagt atapos
ĠPr ivacy
Ġbany aga
Ġd erm
ĠP utin
Ġi ilan
Ġmass acre
Sin us
ĠCert ificate
Ġkast ila
Ġveg et
y ing
alam ina
Ġpagw aw
Ġque en
ill era
Ġpinakam as
ĠIg nacio
Ġmatemat iko
aEUR oe
abilit ies
ĠE p
Ġ7 00
Ġmaka apekto
ale z
C D
G ayundin
ĠG lobe
Ġtat agal
Ġek tar
Ġnan irahan
ĠKar apatan
Ġvide yo
Ġpond ong
i iral
Ġp apag
Ġat o
ĠS undin
Ġtum ira
Ġpart ners
Ġlub id
ĠVill a
Ġbol t
Ã º
ok olate
Ġnak u
Ġlum akas
ĠPr ins
Ġhab ambuhay
Ġmunisip yo
Ġt ant
Ġt ree
Ġc urrency
ĠK ud
Ġst y
ĠAr iel
res ibong
eb a
j e
l ict
ĠS ong
ĠN ora
Ġbin ib
Ġmapup unta
ĠKat awan
ĠAga inst
Ġpagpop roseso
ynth ia
el ing
Ġw et
Ġlang uage
ra im
utas in
Ġsil bi
Ġkomprehens ibong
ĠK w
ĠT ubig
ĠCh arl
Mas aya
weepst akes
t est
ĠP araan
Ġma anomal
Ġbak anteng
Ġikap itong
ĠW atch
Ġlib angan
Ġnagh ihirap
ĠRoy al
ĠFranch ising
l um
Ñ ĸ
Ġnil al
Ġmed al
Ġmagl akbay
Ġpep per
in vest
ĠM aya
Ġmag mum
Ġv es
ĠAl isin
de o
Ġlaw s
Ġcamp us
Ġnation wide
ĠH or
Ġbas ket
Ġlub usan
Ġem ission
Ġpinangg alingan
ĠJ ed
In ter
Ġtangkilik in
Ġm istulang
ĠD eb
Ġpina mag
iga an
ĠCor a
ĠBab y
ĠCH R
Ġsqu are
w ell
et ers
Ġmat rix
Ġtat alakayin
ĠPro duc
v oy
ĠT inig
ĠG omez
Ġik inat
Ġl uck
Ġh inding
Ġis land
Ġc ute
Ġma isip
Ġal intana
ens yang
Ġibin ub
ĠCla ud
0 4
T ip
b rowse
Ġs outh
Ġnap igilan
ĠMe dicine
Ġ198 6
Ġs uit
Ġ6 2
Ġtinat anong
Nak ipag
ĠAir lines
d iya
ĠP DAF
Ġc ru
ĠH ost
op t
Ġmap anood
Ġpum uti
ĠElec tion
Ġpanin ira
Ġpina hah
Ġres ibo
Ġme dium
Ġpanguna hin
Ġus ers
ĠPat otoo
Ġbih ira
al pok
ĠB uti
Ġkas agana
pek t
Ġpin angyarihan
ĠCl inic
s orry
ar sk
Ġg uhit
ahi in
Ġbinab antayan
Ġfront lin
ic itor
Ġtim pla
Ġistr uktura
ĠFil ter
ĠTra ffic
ĠJerem ias
d uce
v iral
ip ilit
Ġe uro
Ġi ilang
omy cosis
B e
g uro
p le
as yal
Ġnak umpleto
ĠR ibbon
ist ing
Ġhigh er
Ġ uwi
ĠP inal
Ġga b
Ġv ill
Ġmagd esisyon
Ġkomp etisyon
Ġipagb awal
as er
Ġmang mang
Ġhang ang
tm l
Ġt uyong
Ġw edding
ĠT exas
alat ag
ĠSam sung
Ġsuppl ies
o en
Ġb ading
ĠN oli
and el
ĠAnd rea
Ġnakapag p
ĠPam ahid
h ero
Ġh agdan
uw as
Ġib ayong
Ġnagh ahangad
Ġpagna nasa
ga nap
ĠC alam
el da
em ia
Ġpanan im
Ġt awad
Ġka anib
Ġkat ungkulan
Ġmags ip
Ġco uncil
Ġass oci
Ġbl oke
id ers
Ġlit eratura
Ġisina ilalim
Ġmakap unta
ĠD atu
ĠUS D
Ġda og
AT E
prot esta
ĠT elec
Ġin stitution
ĠF ace
Ġit ulak
Ġpan imula
Ġpinab ayaan
Ġadvis ory
ig ro
Ġunawa in
Ġpags ang
M I
h as
ul f
Ġc iv
Ġinih arap
Ġmapa it
Ġwa ay
Ġnasasak tan
ĠKid lat
T ER
Ġr uling
Ġpo or
Ġlib rong
ko hol
ĠGe oph
N ews
ag as
Ġt alo
ĠToy ota
Ġ \
Ġlum utang
Ġac h
pa alam
Ġmapap anood
Ġb og
Ġdi am
Ġbum abalik
enc ia
Ġcont ent
lec t
Ġpatak arang
Ġhiw aga
Ġibinal ik
Ġdinak ip
as ukan
Ġan s
alo c
Ġhal ong
Ġbay wang
Ġpis u
Ġmister yo
G aya
g um
Ġt and
Ġl aking
Ġnang ak
ungk it
ali ano
Ġmet abol
ab ad
Ġpatak buhin
Ġcent ral
mon itor
V E
er ador
ĠC ir
akat iwalaan
ĠMal apit
nil ad
Magbab akasyon
Ġb ong
Ġlum alakas
did ong
err ing
Ġkaka unti
Ġtup arin
ĠAstronom ical
r ado
ĠG el
Ġpagl itaw
ich es
Ġparis ukat
t l
v ic
ĠD ina
alas on
etal ye
Ġfre edom
ug utan
ĠC ynthia
ot on
ur on
ĠAs h
Ġreport s
ĠTim es
it her
ĠP ANG
Ġpags alang
ĠPag hahanda
Ġpagp igil
Ġweb sayt
ĠMus ic
D ownload
ĠS witzerland
uw ero
op les
Ġmed isina
Ġmapap ansin
sas agawa
Ġpar ating
ent ure
Ġpagpap abata
ĠDi et
Ġnagtat ago
Ġse ver
Ġpinas lang
Ġinirerek umenda
Ġrequire ment
Ġrehim eng
Ġpag iisip
Ġsal on
angk ad
Ġsinas adya
Ġpagkal ugi
ad kad
Ġap rubahan
Ġmagt uro
Ġts eke
Ġprogram s
Ġpay ment
Ġmagka iba
Ġrespond ents
Ġkarat ig
G awa
N ung
U D
j ay
un ok
ĠK ey
est iya
Ġkar ihoh
unit ang
ĠPag e
Ġpans ariling
Ġat om
ab ahan
Ġpang alanan
Ġmagk ita
Ġnas alanta
stit us
Ġts okolate
Ġdisc uss
ĠEduk asyon
O ur
v ia
Ġis tat
ĠNa isip
eri os
ayag pag
ĠÂ °
M alou
n od
t ama
Ġt amasahin
ĠB F
Ġag ric
Ġprot ektado
Ing les
Ġh anggat
up s
ĠB oto
isy unan
Ġpow ers
ili ate
Ġgum uhit
Ġmagsas abi
ĠPat rick
Ġann iversary
ĠGeoph ysical
s um
SA P
Ġpaglal ahad
Ġpa in
Ġsina dya
ĠAt mospheric
Ġnapak ahirap
ĠN akas
ĠR icky
Ġsilang anan
me al
Ġneed s
asaluku yan
Ġpasy enteng
l ina
ut ukoy
Ġpagt atak
Ġpagbab antay
Nag anap
Ġen co
Ġing redi
Ġkinik ilalang
ĠFaj ardo
G ayon
W D
Ġk ost
ap point
ĠH old
ĠJ et
Ġpakik inig
Ġit utuloy
Ġkah irap
use o
Ġnagsis ikap
we alth
Ġnakapag pap
Ġcal iber
Ġsupport ers
p uno
Ġum unlad
Ġpagt uklas
Ġi OS
Ġpad erby
ĠGonz alez
Ġt issue
ig ger
ik aso
ĠF ara
ĠIs ko
Ġkailangan in
Ġmagd udulot
hih intay
Ġexc ise
ĠEspa Ã±ol
Ġk ph
Ġak dang
Dep Ed
ĠBarb ers
8 9
f ood
ĠA IDS
ĠB urg
ent ang
Ġmal iligtas
Ġal arma
Ġel ect
Ġhin uh
Ġwe eks
Pag t
Ġpil ot
Ġamb ush
ĠM S
and ona
ug e
Ġnagb ib
Ġcar bo
Ġfail ure
Ġnakat ala
Ġgu y
Ġpinay uhan
Ġtol da
Ġp ili
ĠN in
ek usyon
Ġmagp alathala
rid ay
Ġinj ury
Ġconv ict
Ġpinamam ahalaan
f ix
eb e
rim azole
Ġikinas awi
C S
V A
al erios
Ġinf lu
Ġeff ort
Ġarg umento
Ġs we
ĠS AR
Ġmad re
Ġpangk araniwan
ĠVictor ia
ĠVe gas
E k
ĠP ur
to m
AL ANG
Ġnagp alabas
Ġbal e
Ġmagh atid
Ġtah i
ĠT anggap
ac er
Ġnakakat awa
Ġkan ela
Ġad s
Ġtin edyer
l ah
Ġd ream
ĠG SIS
Ġpro mo
Ġhang o
Ġhelicop ter
C l
Ġinil atag
ĠMal iban
ĠEx change
ĠAm en
Ġplan e
ĠIl agay
Ġtumit igil
ĠRub en
S agot
ut ism
Ġf it
Ġga mpanan
Ġbent ahan
Ġik ot
Ġpagkak ad
Ġair line
hy dr
O Y
k abilang
Ġb obo
en eg
ĠP alagay
Ġv ia
Ġnab ago
ĠAb alos
Ġlag anap
ĠM anas
ĠT uga
Nak uha
Ġcandid ates
Ġbreed ing
na ga
Ġdin id
ĠU y
ĠAr gan
Ġpinaghih inalaang
Ġpinamag atang
N al
ĠM alamang
ĠT es
Ġin ia
Ġpl atap
Ġsab ik
Ġpant as
Ġpagg ag
ĠArt icle
Ġisinasa alang
ob oto
Ġkil ay
Ġprot ect
Ġterm s
Ġmay orya
Ġsec ret
ing on
Ġh ol
ĠPag babago
ĠSer ies
Ġadv ant
Ġret ired
Mak ikita
Ġfamili es
Nag b
gy pt
ĠBul aga
a away
ĠS E
Ġmalas akit
Ġdinal uhan
Q U
ĠL ov
Ġtr end
Ġbat ong
Ġkag iliw
Ġinih aing
Ġhom icide
s ur
al astas
ok al
Ġelement ary
Â ·
bang an
EA D
ĠPala ce
6 2
G aano
ĠS l
ĠC N
ĠK it
Ġpum apatay
Ġnagpap adala
rek ober
Ġpanguna han
Ġscreen ing
Ġl ayon
el ines
Ġsc ale
Ġpet sang
Ġnakapag tala
Ġspe aker
Ġd inar
yon d
Ġpin untahan
A h
ĠP aki
ĠB ala
od ka
noy arsk
Ġpaglul unsad
M alaking
Ġpar ati
ĠD ante
ĠO pis
Ġts aka
inung aling
Ġtu ition
8 5
M ahalaga
al apat
ĠL amisil
tr at
Ġkap ighatian
oro ugh
Ġcr ack
Ġmagpat upad
Ġchair person
Ġur ban
ĠTelec om
y erto
ic ia
ĠL ao
ish ops
Ġout let
ĠMo ovit
Ġadv ance
ĠLP G
Ġkis ame
ĠRong alerios
Ġ uto
al k
ung unahan
Ġum iwas
Ġkag agawan
Ġpinab ulaanan
int ab
Ġkar t
Ġas ya
Ġmar aramdaman
Ġmakat akas
Ġpah id
Ġipam ahagi
Ġproced ure
ill ance
ĠMas akit
ĠSh o
ph oon
Ġnamum uhay
6 3
7 2
Ġ iwas
Ġh iyas
ĠT ita
te ad
Ġman ip
Ġimprastr aktura
P am
ar ada
ĠD akilang
ĠL istahan
Ġhehehe h
Ġpanatil ihing
pup unan
L ib
ĠP ent
ĠP ier
un wari
Ġtum angging
ew ork
Ġins ekto
ĠAk lan
ĠNak akat
Ġcons um
Ġtip ong
Ġprelim inary
, .
A nak
ab unan
ĠJ in
ĠW at
Ġgan ung
ĠMalays ian
Ġp abango
ĠI mb
Ġal tar
Ġpl ato
asal ungat
ĠSol usyon
Ġtuk so
Ġist ilo
Ġviol ation
am ora
ul id
Ġnak ulong
ĠBu ena
k en
it igil
ĠS ampung
ĠC ontrol
Ġman dir
ve illance
Ġgam ay
Ġinf ection
Ġitinak dang
Ġbinat ikos
a api
ip ikong
aling h
ind og
Ġhe at
Ġbal iw
abl ado
6 4
M ari
g ement
ce an
Ġbat ayang
Ġcon stitutional
ĠKr us
F I
Ġc ured
Ġe wan
ĠPh ilip
Ġmagb awas
Ġcl osed
Ġbub elya
Ġintegr idad
ĠTuga de
7 00
ay amang
Ġl apit
bi an
op timize
at meal
ĠL ilia
Ġpagk ikita
Ġmad ulas
ĠBr andon
Ġsas ag
i able
á »
an didato
Ġar gan
Ġpum upunta
Ġnagt agumpay
Ġlimit asyong
Pinay uhan
ĠBinig yan
ĠPob lacion
it iyak
us isyon
Ġg ear
Ġgr ab
Ġitem s
Ġkusto diya
Ġl ata
Ġco unty
Ġpersonal ity
s ihan
es tr
ĠA Y
ĠTh omas
Ġing les
nam ic
Sup t
na mon
ĠP iliin
ig nation
Ġmay ayaman
Ġmat ul
Ġnapak alaki
ĠSub ukan
Ġhealth y
Ġleb el
Ġbabag uhin
k om
ĠP N
Ġgr asa
Ġpagsas abing
Ġkinal abasan
Ġtrap ik
Ġdeg rees
Ġpinip igilan
Ġ `
Ġg wapo
ĠR io
Ġsh ut
Ġitina pon
Ġmangang aral
ĠPak iramdam
ĠC irc
Ġc ider
Ġkal at
ĠJer ry
Ġd ili
Ġpagp aslang
unc tion
Ġmaib san
ĠSil vest
Ġm ano
Ġo cc
Ġmags ilbing
Ġtin ulungan
Ġpre p
Ġnapat unayang
ĠBook ing
l eman
p ir
ul pot
una ryo
Ġlik ha
b et
at iba
Ġt ita
ung ol
ĠT ips
oy al
Ġtak ing
Ġdem onstr
Ġindibid uwal
ik om
Ġj un
Ġgr ant
Ġmagb ukas
Ġbuy er
Ġphoto gr
Ġhul ihin
ag in
ĠB BL
lan ta
Ġipag diwang
Ã³ n
Ġm ut
iy ab
Ġpin k
Ġent ra
Ġauthor ities
I yon
b is
ar ka
Ġpina pang
imb ita
Ġpagb igkas
Ġel im
ays on
Ġro bb
ipin ta
Ġbill s
Ø §
at eral
ĠT her
ĠIp aliwanag
IR I
Itin anggi
Ġs ugar
ul ihan
av en
Ġpab uya
land iya
Ġestr atehiya
ermark et
Ġm orning
Ġun yon
ote a
ĠKal ihim
ĠIsab el
7 9
P RO
Ġn uon
ĠK alooban
Ġma ulit
Ġinst all
Ġvictim s
ĠGuill ermo
ĠFara on
h ar
z i
Ġm os
ĠC amb
Ġpagbab anta
ag ahan
Ġkan tang
ĠB SP
uy ot
ĠSU V
Ġpagl aganap
Ġnab iktima
umpis ahan
ĠEqu ipment
Ġdis aster
Ġdetal yado
ĠRom ero
aint indihan
w oman
Ġl ilim
or is
Ġo h
Ġkal inisan
Ġab use
ĠEd die
ĠAgu ilar
ĠElement ary
Ġp imples
Ġpang ingisda
ĠMar x
Ġnab abal
Ġmiss ile
ĠKras noyarsk
Ġ <
ah ero
Ġl iving
Ġnag y
ĠJ ournal
Ġso ap
Ġpagtat atag
ĠOr t
Ġnagtat ampok
ĠTin io
Ġkapat iran
B u
v ol
Ġr iyan
Ġsi ze
Ġmaa apektuhan
Ġpinakam al
Ġab us
san ib
Ġpup untahan
Ġfinan ce
Ġappro val
ĠPlay er
b log
ĠD ise
ĠL ic
ĠH ind
Ġpana nd
ust usan
Ġdirek siyon
Ġoint ments
Ġh an
ĠM ess
Ġtag s
Ġhin ikayat
Ġnagh ih
sh ine
Ġestabl ish
Ġaccom mod
ĠNag sisimula
uh ol
Ġsal ary
ĠGum agamit
P inab
to wn
ĠAl i
ĠY our
if er
Ġby ahe
Ġscholar ship
Ġrebolusyonar yong
m l
ĠI w
Ġr iles
Ġsina pupunan
Ġip unla
ali ang
Ġnap up
Ġmags imulang
use um
Ġtama an
Tin ukoy
Ġtiy uhin
ab atid
es iya
ĠP urok
Ġmay o
ĠF in
Ġag os
Ġpanl ilinlang
ĠSilvest re
a alinlangan
t agal
ur usahan
ĠN ight
Ġpagpap akilala
Ġsin ira
Ġnot ice
Ã¡ n
8 2
p onsor
Ġd ilim
Ġnah uh
ulak lak
D r
H S
b uhan
Ġsa gana
Ġf ather
Ġma iwasang
Ġpin iling
hib ition
Ġd u
ĠA utonomous
Ġr ail
Ġnapak agandang
ĠLum ikha
Kat ulad
ĠAdvis er
h et
Ġp uri
Ġnab abahala
duk ot
Ġen ough
Ġsa ys
Ġf are
ers ey
ĠQ CPD
Ġcaps ule
ĠBangk o
kw entro
ĠChan nel
M ap
Ġw asak
ĠN awala
Ġmo use
ĠMay nilad
Ġboy s
ĠMilit ary
Ġma alala
Ġkina in
Ġsab ong
Ġkuw ad
Ġmakapag bibigay
Ġtut ulungan
inab ukasan
Ġpagm aman
ĠSol icitor
bas i
Ġnakam amanghang
D akong
ap ong
ap usin
Ġcom ing
Ġmaip asa
aw s
em ma
ĠE at
Ġiy ak
Ġnagh ahatid
ĠKa zan
ĠHernan dez
ĠP rison
ĠD ream
ĠK el
ire z
cel eration
ĠGina mit
al ipas
Ġk ing
ĠS oc
ĠR ice
s han
Ġm arangal
il as
Ġf iber
Ġre mit
ge on
Ġmid dle
un ud
ĠM alaman
ĠS ha
ut ay
et iro
Ġid araos
Ġeng lish
Ġmess ages
Kum uha
Ġantibiot ics
ĠBun ye
id um
Ġnang at
Ġsum iklab
Ġsis ter
Ġ199 0
ĠSilang anan
Ġre covery
she et
Ġ iw
iz ing
Ġpagbab alat
ĠOlymp ic
c ons
it ikang
Ġt san
ver ify
Ġpum irma
Ġpagsas amantala
Ġte achers
Nat ional
ter yo
Ġkum ot
hon es
Ġnakat agong
rol ley
Ġtek stong
Ġhil aw
ĠHigh ways
v as
ka iba
Ġsal ik
ĠEx t
ĠPina tototohanan
ĠPrin ce
Ġsubsc ription
F ilipino
M U
ang al
Ġp igil
ĠS aka
c ery
am ig
Ġh ud
Ġmat uloy
Ġacc ept
Ġmem ory
ĠNazar eno
F ac
ĠA fter
Ġres eta
ard ing
Ġpinag pap
Ġart ipisyal
AG A
ĠItal yano
Ġpros ekusyon
. âĢ¦
7 1
b akit
ã Ģ
Ġnagt ayo
Ġlib rary
ĠPro c
Ġgin ugol
Ġinf o
Ġmaginh awa
Ġkud eta
un uran
ek onom
Ġprov ide
Y es
Ġpas ko
mm m
umig m
ahat ang
Ġit ataas
ĠMag n
Ġgam bling
Ġen forcement
ĠKal ayaan
Ġhina hangad
ĠOb ispo
ĠFel ipe
Ġpagpapap uti
I bin
as ons
ĠS I
ip ik
Ġman u
Ġpagt ugis
Ġmin utong
ĠPar eho
Ġexam ination
Ġkumpirm asyon
p ur
Ġh ospice
Ġpas ensya
Mar ahil
Ġsinal ubong
ĠAw toridad
Ġnanana han
ĠaEUR oe
Ġtherm al
h ag
ĠT inawag
Ġre tail
Ġil arawan
Ġ6 8
ĠGen esis
Ġhand s
bab alik
ĠMana nampalataya
Ġrehabilit ation
Ġvess el
Ġeksklus ibong
ĠK AD
ob by
MA R
Ġmater ial
ĠInd ya
Ġnakah iga
Ġconsult ant
Ġkarumal dumal
Ġhib la
ĠM oh
ĠN BP
aya o
j os
ĠM ina
Ġal kohol
Ġtit s
Ġstr ing
Ġnakab abatang
reng th
c ao
he ng
uw ede
Ġmas elang
Ġsp read
Ġcl ient
Ġlabor atoryo
N alaman
Ġor ange
Ġpagsus ugal
Ġsag upaan
Ġt emang
ĠP rec
ĠM A
ĠR ab
Ġ6 9
umb aga
Ġbuk al
Ġnagbab antay
ĠBro wn
Ġpagkakak ulong
Ġdist ancing
Ġpag yanig
Ġw ave
ĠB alag
Ġmagb abalik
Ġfac tory
ĠJohn son
ĠKore ano
ĠCommon wealth
Ġalumin yo
ĠN est
ĠV AT
Ġpis tol
z pi
Ġd asal
ut ch
Ġc la
US T
Ġens ure
id or
ĠB ukid
ir ates
ĠAt ing
Pag s
Ġart istang
Ġpagpapat otoo
Ġpansin in
Ġpananak op
Ġalm ond
Ġk epe
Ġcut ting
Ġmem orya
h ayan
Ġk red
Ġk eso
Ġb anayad
ob s
Ġkab und
inal aan
Ġins peksyon
Ġ0 9
Ġdiffer ent
Ġg alak
Ġpananal asa
Ġhist or
Ġwhit ening
c les
z en
Ġs ed
Ġna rekober
ay unan
ĠL amb
ĠAk ong
Ġind ikasyon
ibay in
Ġpagkakas unod
Ġmagkakas unod
Ġenfor cer
sc ribe
Ġhuk ay
rim inasyon
ĠSher yl
" )
ĠM ur
ĠL ake
Ġnat on
Ġsum apit
Ġpagkak aloob
Ġinter b
Ġadministr ative
Ġ199 5
ograp h
ĠSamp aloc
Ġkasagana an
Ġk anay
Ġit aguyod
a ah
Ġd ign
Ġta un
Ġwar ehouse
ĠEr win
Ġrelig ious
G iardia
Ġm igr
Ġt ogether
or od
Ġko d
ies ta
ĠBr iga
Ġhina yaan
Ġcelebr ity
U B
Ġh uris
ĠBar bie
Ġob ser
Ġmaanomal yang
Ġb angga
ĠS weepstakes
Ġnak alabas
Ġkab ayan
Ġad min
ont ak
Ġpinap anood
ĠPD F
Ġkapul uan
Ġonych omycosis
Ġdeploy ment
" >
T otoo
Ġd ulang
ĠG anda
Ġar kit
ump isk
ĠNa alala
ĠClaud ine
' ve
z ol
Ġtut or
ĠRos tov
ĠP ok
id ahan
ĠL ast
Ġman ong
Ġsc ience
Ġdep ression
Ip inak
Ġinj ections
Ġexpl os
Ġpel igro
ĠZe aland
ĠJ or
Ġum angkop
Ġ ingat
is try
Ġh aka
ĠS ion
Ġv ib
Ġsus uportahan
Ġnab ibigyan
Ġed isyon
Ġwh ole
ĠK uto
ĠN utr
ĠF al
Ġab erya
ĠIndones ian
Ġmagtat agal
ĠN ik
Ġpal ayain
Ġpis ong
pi ece
ĠBangk ok
eros ene
ar ungang
ab ar
ĠMari e
ĠPags usuri
ĠKan ilang
Ġkel angan
ĠCana dian
oen ix
H ello
s en
ay akap
Ġnag reresulta
ĠH K
Ġmab angis
Sa an
Ġmar riage
Ġnot hing
ash es
Ġnagkak amali
hal imbawa
b ata
f ast
y mp
Ġor al
Ġtin angay
Ġkaib han
Ġsentim os
Ġpinahih intulutan
n di
am ahal
Ġmay amang
Ġdin ner
av a
Ġsak dal
Ġkalak aran
pri ations
Med yo
Ġlum alag
ma el
% )
s ulok
Ġl utasin
Ġup on
Ġpagt alakay
Ġtrans mission
Ġmakab uluhan
ĠEm ilio
p atay
Ġt alatang
ĠD E
Ġmab abaw
ĠIn tegr
Ġob ject
Ġpagpapas uso
Ġgrad uation
ar ong
ĠI tim
Ġpagk anta
ine e
Ġmah iw
ce na
Ġmagk asya
ĠAn na
ĠBag amat
Ġtsan sa
2 50
itan ya
alik asan
ĠAr ts
IT A
Ġnapap anood
ici ency
Ġestabl isim
ĠJav a
Ġ utol
Ġp unta
Ġor g
Ġed ema
Ġsilang ang
Ġlabor atory
ĠTon i
Ġsung ay
ĠManas es
j ada
Ġm ith
Ġpat rol
ev in
taas ang
Ġ ]
Ġent ablado
ĠAfr ican
ĠA mm
Ġtip o
Ġwat awat
D e
Ġb anat
ah aba
ace utical
ĠBr ill
ĠCo ffee
Ġkuw al
rel lano
Ġsery eng
Ġnec ess
Ġb igo
ĠC all
Ġy aya
Ġwas hing
ĠIp akita
ambo a
Ġfire arms
' '
m os
Ġk akasuhan
ung ad
Ġf ew
ih ood
ĠE gypt
Ġmakat wirang
ecut ors
Ġpinagh ahanap
Ġcongress man
Ġm inahal
Ġna aalala
ad ahan
el ess
Ġpam paputi
ĠO t
igh ter
Magug unitang
ĠRap pler
Ġs emento
ĠH anda
Ġniya ong
Ġtin ingnan
Ġlib is
aal sa
ĠSup pl
Ġrest aw
k g
am ag
Ġis umite
uh ian
Ġin uman
ĠL ad
ĠNag ulat
ĠMa estro
oby erno
s uit
en ess
Ġlab atiba
Ġam inado
ĠPag gawa
Ġas ignat
I E
S ing
an ing
ar ado
ĠS iber
Ġum angat
nd rome
Ġatt end
Ġjud ge
Ġmabibig at
Ġpam paganda
ĠE ug
Ġpags amahin
ĠPag ka
iling in
Ġpant alan
Ġnand iyan
Ġpinip ilit
Ġhuris d
ul ating
Ġsh ipment
Ġinter nal
ĠSe ism
Ġ199 9
ĠBong bong
Â »
ab aya
Ġg ov
ĠB and
Ġf ing
les sing
umb ers
Ġfoot age
ĠIndustr ial
Ġguward iya
y way
ĠL am
Ġkar bon
Ġik inag
Ġi re
Ġser mon
Ġwas te
ĠKar en
un ce
ĠS mith
Ġman iniwala
ĠCh at
Ġpr int
ĠAp pl
Ġmasak lap
Ġpropos al
Ġbolt ahe
Ġves n
k araniwang
n ut
Ġmas ipag
Ġum apela
Ġpagt atanim
ĠJes u
Ġge omet
Ġey el
k amay
n Ñĭ
is ahin
Ġd ukha
ina win
Ġf ert
Ġnak aramdam
Ġlo wer
Ġres ol
Ġsub ukang
Ġini iwan
Ġamo unt
Ġtand em
ĠKAD IRI
I m
is ado
Ġbag uhan
ord ing
Ġpagbub uo
clus ion
Ġrev ol
Kap uso
ĠM angg
ub ayan
ĠPinakam alalang
Ġtranspar ent
Ġopport unity
ist le
etro le
ĠSat ur
P inat
g age
ĠS om
Ġtr uth
Ġhum anap
Ġsam bahin
Ġdel ay
Ġinaas am
Ġinf rastructure
zh ou
ĠC hair
Ġin ingatan
Ġma ubos
Ġsin unod
co hol
Ġmakak akita
Ġmang arap
uksa in
Ġgen eration
Ġchar ter
ĠTay landiya
S ant
Ġk ore
Ġh i
ed ral
ĠPh p
Ġste el
M ary
c ulator
r enta
Ġm untik
Ġh ain
ĠJ ov
Ġal oe
Ġad vice
com p
ĠSin tomas
Ġmapat unayan
Ġtamb ay
H uling
l ike
p alagay
t aka
Ġtum awid
ĠDep ende
Ġbun so
prot ektahan
ĠCollec tor
Ġmagas pang
F D
Ġk ok
ĠK oko
apal ad
Ġadvant age
Ġpinakam ahalaga
Ġnil alaro
ĠF ather
Ġenvironment al
ĠDigma ang
Ġnegot i
or yang
ĠC ambo
Ġma unlad
W ith
ul od
Ġpag dukot
ĠS EC
ĠG amboa
Ġpagp arito
Ġneg ative
Ġpriv il
ĠProbins yano
Ġrobb ery
u unawaan
Ġf resh
ill ed
Ġbuhay in
Ġpos ter
Ġhe to
ĠBr yan
Ġkinal alagyan
ĠChild ren
p ert
Ġt old
Ġh ustong
ĠBr idge
Ġimb ento
Ġpagdud uda
NL F
Ġmoisturi zing
A restado
S he
T inawag
z ole
ĠS ilangang
im ir
Ġman i
Ġkina n
Ġmakat wiran
Ġmagt ut
Ġub od
ĠTok hang
ĠGabri ela
B OC
un tok
ĠR et
Ġmak ontrol
Ġkum anta
inag ot
Ġpaghah arap
P wede
c ock
Ġnagp aalam
Ġtal ud
Ġadministr atibo
Ġfight ing
Ġpoll s
ĠFre edom
Ġconvers ion
etrole um
Ġano man
inat ed
mp ong
Ġpal awig
Ġpant al
Ġpinat atakbo
ĠMad aling
Ġbody bu
ĠOs mena
on to
ĠS ad
Ġc reative
ĠV or
Ġnagb abalik
Ġloob an
Ġpin ipili
AS G
Ġ199 7
oca ine
u ari
ik ilya
ĠN ow
Ġbas lanay
ĠBag yong
sh ips
ĠCar m
16 5
Ġitinut urong
Ġapely ido
el ect
Ġf inish
Ġpang akong
Ġhel met
L et
im tim
Ġmad aming
ond ay
Ġpalig sahan
Ġin put
Ġf at
ac a
Ġre ference
Ġlum ala
ĠMar cel
ĠPagk abuhay
ĠPagk akatawang
ĠIt alian
Ġwa it
Ġpalawig in
P inal
ĠT alaan
ĠF err
Ġa udit
ĠAr i
Ġ7 8
Ġsat ellite
ĠRepresent ative
Ġanno unc
Ġplatap orma
O K
ĠA rellano
MA Y
sk i
Ġcy ber
and ahan
atang hal
Ġid inisenyo
ĠNiger ia
Ġpinahah alagahan
d s
Ġh ayaang
Ġnag da
ĠK iko
ion e
ĠG all
ĠBr iones
ĠKag awaran
T ina
c al
Ġre mote
Ġgum aan
Ġ7 9
ĠEl mer
ĠBat asan
ĠImp er
Ġadh ikain
m ana
t ayo
Ġmagpap a
Ġkatang iang
C IDG
ig ising
ĠB ible
Ġsus t
ĠN I
ĠN itong
em ploy
Ġmal igo
Ġnas amsam
Ġnagl alagay
Ġmais as
Ġol ive
Ġsp ring
AT ION
Ġbuck thorn
ĠB E
ĠAss embly
J oy
Ġun ibers
Ġsol ution
Ġpagtatag uyod
Ġkabund ukan
d em
Ġs ansinukob
ĠR ock
op en
Ġpal ayo
Ġpamb ili
ĠSent ral
Ġl os
Ġnang ab
Ġgu ar
ĠPO GO
li ament
ĠMab uhay
Ġresult s
Ġpanggag ahasa
Ġh alim
Ġg lass
ĠJ udy
sing il
ants ilyo
ĠCook ie
Ġka i
Ġto wn
Ġlum ampas
Ġap ril
ĠPa z
Ġtumut ugma
Ġpagkaka alam
ĠKin uha
Ġbid yo
Ġanalog ue
i iwan
Ġs ulit
el e
Ġsc an
ĠBon us
Ġk erosene
ĠS ignal
ĠK ings
amb ot
Ġ6 3
ush ki
ĠIb arra
ivel ihood
Ġ 000
ĠK itang
Ġman if
ĠDom ing
Ġans wer
A las
ih iyon
Ġkal kul
Mag anda
ĠVal ve
Ġitinat ago
ĠIm port
ĠVol can
s uklam
v it
Ġm ight
ĠS tory
Ġsin k
ĠVal ent
Ġlap is
ĠLap id
Ġmanufact uring
M ahirap
» ¿
à ¤
Ġp ill
Ġp utol
Ġf rat
bl ema
ĠN ancy
ĠH an
Ġ( âĢľ
Ġcal orie
Ġsk ills
Ġrehim en
or an
Ġpags ukat
Ġpagpap arehistro
Nag hahanap
Ġl uxury
Ġlam ok
Ġgraph ics
Ġbacter ia
6 1
D uterte
Ġpagk ontrol
Ġmal alang
Ġkal der
Ġno vel
Ġpat alim
Ġpat atas
ĠGam otea
Ka agad
Ġsis ihin
ĠF ast
ĠPang ang
abi es
Ġmakipag tulungan
Ġmapag b
ĠKat ipunan
mo ve
Ġawit in
Ġimposible ng
tand em
U C
h il
s ch
ar na
ĠK iev
ĠI kal
emer kado
t atag
in ium
ĠD izon
Ġbu ilt
Ġob ra
IG H
Ġcommission er
Ġcarbo hydr
Ġk alaki
ĠD as
ĠE ch
Ġpr ibil
Ġnab ibilang
ĠSam son
Ġkalak ip
7 4
; )
P ahayag
p ukan
p ower
Ġpag n
ed o
Ġch o
ĠNak uha
Ġtangk ang
Ġcyst s
ĠS amantalang
re ta
Ġta os
Ġmal ala
Ġhin ang
20 18
Act ually
x i
y endahan
Ġb eg
ĠU V
ins eed
Ġte ena
stit u
Ġih atid
ĠImp ormasyon
ito lohiya
ĠB lock
Ġop s
oh in
Ġnews letter
ĠIm elda
T aong
ĠB uwan
Ġmak it
est iy
abang ga
Ġdr ink
ĠCo ord
Ġqu est
Ġing rown
ak bong
Ġw ild
ĠK ian
Ġv it
angk as
Ġhead quarters
Ġmahihirap an
Ġmagm ahal
Ġb astos
ah anay
ab ly
Ġc rane
Ġnat atapos
igt ingin
lat ed
Ġrebel yon
Ġistat istika
c laim
tr am
ĠW ow
Ġpas ya
ĠVir gin
ĠHon ey
ĠL at
ena dor
ĠIn quirer
Ġbas is
ĠAs yano
Ġtinat angkilik
igaw an
Ġla ang
Ġespirit wal
Ġakt uwal
Ġmant ikilya
i ff
el as
ĠH ina
ĠR ene
Ġpol ic
Ġmananag ot
il et
Ġl eng
und a
Ġso on
SA G
Ġpe dic
ĠEl i
Ġnagm amaneho
Ġmaipat upad
ĠK aw
aan i
ect s
ev a
Ġpes te
ĠSil icone
Ġkamang mangan
Sak aling
O ne
it ure
Ġpagkab ata
ut usang
ĠB all
Ġ20 22
Ġnas yonal
iwala ang
ord ero
ĠPr act
ĠRam irez
Q u
Ġt imb
Ġt ibay
Ġc limate
ĠB ik
ver ter
end ers
Ġsak ahan
ES T
ĠIna min
ĠFel ix
NCR PO
n ik
il abot
ĠM ater
uw ad
ungk ulin
Ġhin ingi
asak si
ĠAustr alian
Ġmun icipal
Ġleaders hip
amb ad
Ġinil alarawan
Ġmed yas
Ġkuts ilyo
Ġhaz ing
Ġna nood
Ġin te
ob rang
Ġmags us
Ġdis s
Ġvot ing
ĠPen insula
Ġikab ubuti
Ġni re
Ġkat rabaho
Ġy apak
Ġpagd aan
ov al
Ġing atan
Ġtuk las
Ġlook ing
p ahinang
Ġmah awakan
ĠCh ua
Ġkin ondena
Ġun iform
serb ahan
Ġkinok ontrol
g ency
Ġf ishing
Ġmab ibili
Ġimp act
ĠUnivers al
ĠWeb site
ĠMalyshe va
L alo
res ibo
iv os
Ġpagt atae
Ġpagl alamina
ĠIn iisip
mun ications
Ġbil ateral
Ġeff orts
Ġpros ecution
Ġn mn
wal k
Ġcor rupt
Ġnagkak alat
DO LE
C ream
Ġban didong
Ġbum iyahe
Ġinil ibing
ĠRom mel
Ġbis ikleta
ĠSas abihin
Ġretire ment
ĠVolcan ology
ens yahan
ly wood
Ġsub st
Ġdam age
Ġcommit ment
Ġstraight ening
ĠEph raim
Ġingredi ents
8 4
d alawang
ĠP lat
ĠH R
ch i
Ġsum uporta
ĠPh oenix
Ġac adem
pat ri
hin to
ĠKat rina
Ġpil as
Ġaks identeng
Hin ikayat
T N
Ġb ibil
Ġo xygen
Ġpam bayad
ĠLib re
Ġbalak id
ĠSem ana
i est
Ġb inisita
Ġo atmeal
Ġsum ikat
ĠAc osta
Ġbibl ia
ĠRomual dez
n n
Ġk ubo
ĠV ilma
Ġba on
Ġkin unan
Ġpagbub unyag
ĠRon nie
hihina yang
T inanong
d ra
Ġm u
Ġt ell
iv or
Ġev angel
ode ga
Ġkakay anan
Ġcap acity
Ġgirl s
ar ag
Ġmar ar
ley ball
igurad uhin
j un
un os
Ġ1 10
iga wa
Ġsp a
Ġsp irit
Ġsamp u
Ġkumpl ikado
Ġsyn dic
D es
K anyang
T unay
is is
Ġh id
ĠL ink
Ġkab le
Ġlum ilipad
ĠMa ari
Ġli quid
Ġkel an
r ating
Ġb lo
Ġkat abaan
ĠF arm
Ġpat ch
Ġpart icip
Ġbal uktot
Ġlag pas
Ġpangang ati
Ġmagag aling
Ġhim ukin
GB T
Ġsug gest
Ġlap itan
Ġmov ies
ĠMuh ammad
ĠP ack
ut unayan
ĠK ataas
Ġmagp alabas
Ġnakap aligid
ph en
uck s
b ilyong
ina tor
id nap
Ġal iw
Ġnagb ukas
inag alang
Ġnagsas ama
Ġpakik ip
ĠPar ehong
Ġmagsas alita
Ġband ila
ĠGal vez
Ġoperat ors
ĠBernar d
a alay
y ero
Ġat ensiyon
ĠL along
Ġman in
Ġik inak
ĠMag hanap
Ġbang in
Ġnagsis ilbi
Ġmand ato
Ġown er
ĠRepresent antes
gu ard
ĠSeism ology
B alita
ga il
el ection
Ġre ply
Mag hanap
ĠTur k
ub ra
Ġkam akailang
Ġmakapag l
Ġobserb asyon
ĠA ve
ĠM and
Ġc od
Ġak ma
Ġpr eno
Ġrel ated
ĠMal aya
ĠRos ales
Ġpinal aki
Ġwr ong
friend ly
Ġclass room
D is
b es
w ika
ah od
ent ista
ĠG anoon
Ġnal ag
ĠGu ing
Ġsinus pinde
ĠWe ight
A fter
Ġt un
ib og
el an
Ġdisk riminasyon
alab anan
Ġextra judicial
I F
ay ado
ĠA st
ĠM ali
und ar
Ġpinang alanang
Ġnamam aga
Ġchampion ship
Ġpi itan
ĠB ishops
Ġpamam aslang
Ġkap areha
Ġbal bal
Ġph en
Ġhealth care
aks aya
ĠLeona rdo
I SA
R S
Ġp aw
as ing
Ġsh ock
ĠNag tat
Ġipina ko
ibo dies
Ġkomed y
t alo
Ġt en
Ġd io
ut ismo
ert i
ĠCon f
Ġnalal abing
n umber
it z
Ġat ty
or por
ĠM apa
ĠB ukas
Ġma c
una hin
ĠF l
y ar
Ġtat sulok
Ġnil abag
Ġfl ights
er ate
ers onal
qu in
Ġmap unta
Ġrec onsider
Ġmakab ili
bl on
L TFRB
Ġmak inabang
ain om
Ġkum ok
Ġkak ap
ĠRes ort
Ġpros ecutor
Ġcollec tion
Ġmapay apa
d amang
it arian
ĠS arang
Ġre action
Ġum ahon
Ġil l
igh ati
Ġmod us
b ad
h iyang
Ġh us
Ġc ore
Ġtul dok
Ġsiy as
Ġelectr ical
e ehersisyo
is ag
ĠP ena
Ġpar apher
oc olate
ma x
Ġsub sid
Ġall erg
Ġts in
Ġfem ale
g overnment
ĠP ot
ĠK n
ĠL yn
Ġsina kop
Ġmab uo
Ġlum ikas
ure ment
Ġpap as
Ġant ibodies
ĠKa ugnay
Ġmagkas unod
Ġparapher nal
c ription
us isi
ĠS hi
ĠN CAA
Ġnagp upunta
Ġsc ient
Ġuna hin
ĠLib ya
Ġtind og
Ġamb ag
Ġpar usahan
Ġg overnor
ek ater
Ġqu o
Ġp orm
am ak
Ġc oco
ĠK ulay
ĠG arin
ec k
Ġan ila
lo v
aka awa
av er
Ġnagd agdag
Ġkons entr
Ġint ro
Ġguid elines
in ner
ĠS AN
Ġc reat
Ġres ignation
po ena
ĠKap itan
Ġpinap utukan
inh awa
Ġindep end
Ġveh icles
an ces
al ba
Ġtum atak
Ġim age
kat iwala
Ġwork shop
ER A
lag as
Ġpakikipags apalaran
y aw
ĠP or
Ġnap uno
alim uot
Ġmar ine
lam asyon
ĠAg usan
Ġsusp en
Ġmapay apang
Ġo vers
Ġma uwi
ĠNG O
ector al
Ġmaginh awang
Ġsasag utin
D inala
t um
Ġbilang in
ud ang
Ġpinal aya
Ġkaginh awahan
Ġmandir igma
il ap
Ġt ons
us er
Ġsal ungat
Ġsp onsor
Ġlib ing
Mag basa
ĠMah igit
Ġnasis iyahan
Ġuniporm e
il inaw
Ġh igaan
Ġw ind
ĠT ub
ĠF inal
Ġkum ulang
Ġtag ab
Ġcon ven
Ġgr ave
Ġmakat ulog
com ment
Ġpagkab alisa
Ġtinit iyak
Ġ eth
ĠY ekater
Ġkaw ayan
Ġtags ibol
9 00
t es
Ġng umiti
ig ipit
Ġc rop
ĠH ang
Ġkas alan
ĠMag karoon
alin uhan
ĠMart inez
Ġs witch
ĠK alak
wa an
Ġnagb abawal
ĠTr aining
Ġmana nak
Ġem ot
ĠSam ara
alaw ampu
tar get
al oy
ah ong
ol ine
ur ihan
Ġnap arito
ma ayo
pag b
ces a
I g
Ġs na
el io
ĠB O
Ġpamam araang
Ġpal tos
ĠTr avel
s eng
amp on
hi as
ĠSh ell
iang co
Ġmagkas ala
ĠS usan
ur ahan
Ġmal ik
av es
ins ulto
Ġkag amit
Ġtak ong
Ġunivers ity
ang hal
uh ong
Ġto oth
ĠPa anong
ES S
Ġpinah iran
Ġsa vings
ĠIs ina
ĠSoft ware
ed esisyon
Ġbum angga
uga o
ĠSam ahan
alog o
r iko
Ġh inala
im utan
uw esto
ch air
ĠV at
ĠInd ay
ĠSher win
ĠSun shine
us ement
ana langin
Ġgina hasa
Ġpr usisyon
Ġpum ipigil
agan i
Ġipap adala
t ika
os sing
ĠM esa
ĠC ain
Ġa ffairs
Ġpap alitan
Ġpangk ulay
ivos tok
R L
b ero
d og
k apal
Ġn orth
og i
Ġnana man
ĠKap askuhan
isan in
Ġany thing
ĠArt ist
Mal inaw
ul us
ĠC er
Ġa abutin
Ġhin ihim
Ġpagsus uka
Ġnakab abasa
Ġrep air
ĠRec ipe
Ġsu icide
angg ay
Ġban c
Ġse al
Ġass essment
Ġnapap anahon
ĠElec tr
ĠIpina pakita
Ġclot rimazole
w ela
Ġhal ata
work s
ĠDem ocratic
Ġkapat awaran
ĠBoto x
ĠYekater inburg
ag ulo
Ġt uwal
ib ir
ĠK evin
Ġkah arap
Ġtin ik
Ġsamant alahin
Ġpampubl iko
ĠB igyan
Ġr isto
Ġf low
Ġpang atlong
Ġmat alinong
iz za
Ġnagp asalamat
Ġde ep
Ġnob elang
ĠDoming uez
r in
Ġb ahid
Ġh alatang
Ġkap ang
Ġpamb ato
Ġsem if
Ġsumis igaw
Ġikuk umpara
Ġl inaw
Ġmas iyahan
Ġkas uklam
ari ff
Sa ad
ĠParty list
ĠDel os
ĠFil ms
But ch
Ġtinaw agan
N et
e ast
ĠD ong
id em
Ġmad ad
Ġpagh ahangad
uny agi
S m
Ġc raft
Ġit apon
Ġsup erv
ĠDevel oper
Ġnahih iya
m ab
Ġh inamon
ih ira
Ġakala in
adal oy
ĠLega zpi
Ġcarbohydr ates
i ikot
Ġh ikayatin
ĠCap t
Ġmans anas
N ew
Ġpagk amay
Ġib unyag
Ġmam ili
ĠSt art
Ġreg ister
Ġtah asang
ĠMis uari
Ġsoc cer
Ġl obo
Ġg ugust
ĠL E
uwag an
Ġpum aroon
Ġex pos
Ġnapak ab
Ġnom inasyon
Ġpagl ubog
Ġp yr
as te
ur ities
ĠMal olos
Ġwas to
Ġling id
Ġretir adong
iy ayaan
Ġnagpap aliwanag
IT O
Ġipag paliban
ĠBu Cor
ĠPum ili
h em
as es
ur age
ĠU ber
Ġbak wit
SA L
Ġpagm emerkado
upit in
Ġrespond ent
ĠZhong shan
K ag
b asan
Ġp iyansa
ĠS ipi
ĠC IDG
Ġtum ungo
Ġop position
ey t
Ġsik sik
Ġmail igtas
Ġpil oto
Ġpage ant
high light
ĠYo ung
D ati
S ONA
S obrang
Ġ iron
Ġmak apang
Ġmat amo
Nag bigay
Ġmagl aan
Ġnad ad
Ġmagpap adala
Ġpagtut ulungan
j ack
ĠN TC
Ġmab abago
uri es
IN E
Ġsel da
ĠKan luran
Ġkahal intulad
Ġl ives
ĠN and
ĠT u
Ġf ine
Ġnah irapan
ĠCord illera
Ġdesign er
Ġreserv ation
Ġs now
Ġs ociety
Ġpang hih
ant el
tor al
Ġex clusive
ict ure
Nang ako
roll er
ĠJona s
Ġintr iga
Ġproduk siyon
MA L
Ġtinut uruan
Ġsay ing
B T
an di
an ne
Ġkal awakan
ĠPh one
Ġtat lump
Ġpanana m
ĠNak apag
Ġber de
Ġhinab ol
S tar
g raft
m ore
ĠT init
Ġmay sakit
ac ies
Ġnga un
Ġdum arami
Ġbr ing
8 1
Ġb odega
Ġnas angkot
inis i
Ġen lar
Nak akat
Ġkor up
Ġkid s
Ġsun tok
ĠTechn ical
Ġelev ator
m ilyon
p uri
Ġ uling
in lang
Ġip al
Ġcor al
Ġself ie
Ġgrad u
im as
ĠE RC
Ġpina tototohanan
Ġ12 00
ĠPe nal
Ġmean ing
Ġperm iso
t ic
ist ent
ult ada
S us
T a
Ġrecord ings
Ġprinc ipal
ĠGalile a
l ibo
Ġw heel
Ġip ad
Ġpagb oto
Ġdis order
Ġmam uhunan
Ġid eklara
Ġnakab alik
Ġvar nish
S olusyon
b ed
an iban
Ġper fect
ĠKud arat
ĠSarang ani
w est
am en
ĠG aling
Ġlum alapit
evel op
Ġmult iple
9 2
P G
ĠB awal
ĠJ M
asa ayos
Ġmap am
Ġnas abat
Ġinil igtas
Ġkaram i
Ġever yone
ĠSAL N
w ards
ac an
Ġch amp
Ġnangy ayaring
Ġdep resyon
Ġprov ision
Ġbis ig
Ġvot es
Ġcer tain
ĠGuing ona
Ġ inggit
Ġl ift
yan mar
Ġini ibig
Ġpand agdag
Ġnau ukol
Ġview s
Ġrif le
Ġrestaw ran
P ac
ĠP amant
ĠM ik
Ġbaw as
Ġcas ual
Ġconf lict
Ġham ak
Ġlu ad
am ine
ĠT HE
Ġka isa
Ġkum atawan
mp alat
uwag in
Ġrec omm
Ġbit ak
Ġipag laban
Ġpek e
alsik in
Ġfa ith
di ola
ro g
ĠB alang
Ġ6 1
Ġpati ent
Ġinirek omenda
ĠTN T
nod ar
Ġn ing
ul la
ĠK araniwan
ĠJ C
Ġno v
ast ers
Ġed uk
Ġlal abag
Ġlif estyle
Ġorganiz ations
Ġsina mpahan
Ġadvertis ement
N am
u ario
ĠA lo
ĠG at
Ġfor ec
Ġdis ip
ising il
ĠSu unto
B N
ig l
ĠT iangco
Ġpan inda
Ġpinak awalan
ĠOp en
Ġpropert ies
Ġs idel
on ey
Ġh udyat
Ġum ani
ĠSw ed
7 3
M ukhang
na ka
ĠO F
ĠO gie
ĠKa z
Ġhim papawid
Ġnakakat uwa
Ġmasak tan
Ġlut uin
vig ate
Ġkonsentr asyon
Ġl ines
ĠS ev
ĠD AP
ĠT ala
ĠE V
ep ende
ĠZ amora
Ġhab ulin
Gum awa
ĠRub y
ĠUs ec
d f
ĠS ime
ir han
Ġpam anahong
Ġtag iliran
Ġex tr
ĠSh andong
ĠNam um
L angis
f ish
t ik
Ġd alagang
ung hayan
ĠM AN
Ġpas ulong
Ġpin worms
Ġhinal ikan
l uck
ĠM u
ĠT en
ĠAl j
Ġdum alaw
isip lina
Ġinih ahanda
ĠSum usunod
ĠNov os
Ġsinal akay
ĠRaym ond
Ġintel ekt
U maabot
Ġmag ulo
and ra
ĠH i
Ġdal ub
Ġas t
Ġnot e
Ġkakayan in
k ot
l aki
he o
Ġv ert
Ġmagp asalamat
Ġnapak arami
ĠKom isyon
Ġti il
Ġcru ise
ibir sk
? )
to x
Ġik as
ona zole
ĠToto ong
" '
U p
g ag
at ok
sp ot
Ġtrans aksiyon
Ġnakal usot
Ġpanl oloko
Ġnational s
Ġindi c
ak ma
ĠP ubl
ĠH irit
Ġar on
ra ud
ian ca
Ġmags ilbi
ĠCora zon
Â ®
Ġb inag
Ġt ukoy
Ġkam bal
Ġdal as
Ġnagt ala
Ġpagmam ahalan
Ġcomm uters
Ġthank s
ĠM alakas
Ġmags ama
ĠSp ain
Ġmid term
ĠVlad ivostok
L ucas
Ġ urg
ĠD at
ĠG abay
Ġ3 50
iz er
agay tay
ĠRom blon
Ġmait utulong
ĠAC T
Ġï Ĥ
F O
d ah
Ġp yat
ĠN ep
et ta
Ġpat at
ĠPagk ak
rot ekta
Ġrehistr adong
C M
Ġkal alabasan
Ġcl inic
aff y
Ġd ung
Ġd ose
ab eth
Ġma ingay
ĠF ab
Ġpum alit
ĠNag papat
Ġnakar arami
c ot
ab la
ĠP ET
ĠS ano
im ang
Ġkat alinuhan
ahin to
ĠSur vey
Ġsirkul asyon
Ġipang aral
Ġautom ated
Ġk ut
um ihan
Ġpagd araos
Ġpakik iramay
Ġdep osit
Ġdumi retso
OFW s
b il
l ive
r ac
Ġg oma
ir ik
ĠL IB
Ġre lax
Ġik inal
Ġmar ating
Ġpers ona
Ġoffic es
Ġindi e
ican or
Ġmeas ure
ak unahan
Ġnat ira
Ġpagt itiis
Ġpin uri
Ġmin ority
ne a
inar io
ĠJuli et
Ġfing erna
s alamat
Ġn it
ĠP orn
Ġpas adyang
Ġworm wood
Nag k
Ġaw ards
Ġnapag kasunduan
ĠWhat sApp
ĠNovos ibirsk
Ġpag id
ĠB ull
ĠN AG
ĠE X
Ġkat aga
ulit ika
ĠAnt on
Ġtiyak ing
h it
h ari
dam ay
Ġpangk ab
Ġamb ul
Ġbenef it
Ġnagkakas ala
Ġkab it
Ġbo at
Ġnagtatag uyod
ĠPul is
Ġrepresent ative
Ġfur ther
Ġ idad
Ġk aro
Ġw id
do or
Ġkal apat
hehe h
Ġent rap
Ġnagpapat otoo
ĠRuff a
ung una
ĠM ost
oc abe
Ġnagt uro
Ġsy mp
Ġmagkak ahiwalay
cle ar
Ġact ive
Ġnand un
Ġpaghuh ugas
Nagp ahayag
ĠEmer gency
I nak
Ġmat andaan
Ġpr icel
Ġmagt iwala
Ġse at
Ġpagg uho
dr awal
Ġhina rang
Ġpinans in
A abot
Ġl oyal
ĠP COO
ĠC S
Ġr ates
Ġpagt uunan
Ġi regular
Mag s
Ġp usta
and uan
alag an
Ġkap abayaan
ĠCom pound
Ġ8 4
Ġbl ess
ĠCambo dia
ĠD ona
int al
Ġpak awalan
Ġmagp aliwanag
duk an
gr asya
Ġbak ing
ĠMari el
ĠSum agot
ĠPe oples
Ġdesk top
a agawang
Ġs ng
ilip in
Ġa ud
angk o
Ġst rength
EN G
G u
ĠV eter
Ġmagk akat
Ġpap alit
Ġdes per
Ġnagd urusa
ĠMat indi
Ġhar ass
Ġnalul ungkot
Ġtor neo
e ek
ay uhan
Ġn umbers
ab ik
Ġpina munuan
bang hel
ĠMak abayan
Ġsur veillance
arant iya
Ġipinap ahayag
Sant iago
J K
h aka
Ġg is
ĠB A
ĠN apat
and ing
Ġkap areho
Ġkar ton
Ġnas irang
ĠMay l
Ġj ump
Ġpagtat alik
Ġmagd usa
Ġsil ver
ĠMot or
Ġsiyas atin
Ġh ingin
ĠM ata
ĠN aramdaman
Ġth umb
Ġgum alaw
Ġhum iwalay
Ġsena do
Ġbinab awasan
ĠPl ant
Ġnob yo
alde a
M akal
k m
Ġmag ising
Ġkal ab
Ġkum akan
Ġkum onekta
Ġtag po
J un
n ormal
ir ia
oy uan
Ġpagp anaw
Ġnal unod
Ġpagpapat unay
Ġ199 2
Ġstock s
Ġkagamit ang
Ġal k
st ers
alim ot
Ġkina ns
Ġhin imok
anal unan
Ġpract ice
Nar ekober
g ulang
ĠM W
ĠC loud
Ġmat igil
tr uction
Ġina abangan
Ġsing ilin
udi es
ateg ory
Ġvis ual
ĠVit aliano
ĠVar gas
Ġkatamt aman
ĠAbi gail
Ġkinans ela
Ġb lessing
ĠN icanor
ĠR isa
ĠF at
Ġbum ub
ord inasyon
Ġcap tion
Ġhead s
ĠCent re
ĠBat ocabe
Ġtiw ali
ĠTed dy
Ġtrich ologist
Ġreconsider ation
à «
Ġk usa
ĠJ enn
Ġan yang
Ġsal ad
Ġac ids
Ġex ample
Ġkatut uran
Ġprim etime
ĠHous ing
ng unit
Ġpang wakas
ĠTr ip
Ġtang halian
Ġpakikipag baka
Ġmus h
Ġkaw awa
zz le
Ġnakakas ulat
Ġsuh ol
ĠCont in
ĠKras nodar
p oses
ĠAng at
ara o
ĠV isa
Ġnakat utulong
Ġnagl akbay
mun i
Ġpagkaka unawaan
ĠCast elo
OR E
Ġvac uum
Ġcin namon
Ġenlar gement
Ġentrap ment
h ers
ep ort
ĠW ay
Ġmab al
ĠMar co
Ġ18 0
ĠMemor andum
s or
ĠB ert
bi es
Ġbat ok
Ġsab bath
Ġpangang atawan
AS E
tram uros
Ġl igaya
ĠM apag
Ġisin usulat
Ina alam
ĠNar irinig
Ġthe ory
io xid
Ġmagp akasal
Ġmakak al
Ġlip unang
Ġdam u
Ġdemok ratikong
Ġcitizens hip
on c
Ġh iya
Ġkam era
Ġag wat
ĠBal do
Ġamb ass
ĠPrin cesa
ĠMedi aldea
Ġk akat
Ġt igilan
ĠR onal
Ġpags agot
no v
Ġina ayos
Ġina yos
Ġkin i
Ġmana lig
Ġ9 2
Ġtel ecom
w edeng
Ġd ar
im ar
ĠD ion
ĠN el
Ġnak apang
ec to
Ġnags ulat
ov ah
ĠSol ution
ĠHel p
ad an
Ġc ocaine
Ġad law
Ġinsp ection
Ġkey board
Bum ili
ĠUA AP
ĠP ilar
Ġis asama
ĠI yo
Ġex it
Ġpart s
Ar aw
ĠDag upan
ĠMov ement
Ġh tml
Ġmad iskubre
Ġst orm
Ġnagl akad
Ġipina d
Ġass ists
ĠFilip ina
Ġswim suit
Nah aharap
S ige
j oba
at on
ĠE wan
Ġpina pa
Ġnas umpungan
Ġbul ok
ĠP E
ĠN ac
Ġpina m
ens iyahan
eb el
Ġsin ungaling
Ġtip ikal
Ġtar ugo
ĠPre m
c lass
ib ugan
di di
ĠH it
ĠF S
Ġpah intulutan
Ġcol iseum
ukl i
Ġmach ines
Ġlamp ara
ĠZha oyuan
anduan es
9 1
? '
Ġg y
ĠE O
Ġdis tribution
rec ycle
Ġnakar ehistro
T H
ent or
Ġand roid
Ġpo und
Ġrec ogn
Ġnagsis ipag
Ġinis yat
i at
na vigate
Ġin iti
Ġsum amba
Ġnas iyahan
Ġmags isit
Ġins ide
Ġsand at
ĠBl u
ĠPin ol
Ġkriminal idad
Ġmangk ok
B uy
Ġch icken
Pres ident
o id
Ġp ra
Ġkat ak
Ġik inab
Ġnagk ataon
ĠAp pro
Ġleg islative
Gamit in
ĠD ead
ĠC ur
Ġ( "
ch ed
Ġst re
ĠAb ra
ich o
ĠQue jada
ĠAp ps
Ġaccommod ation
D E
Ġmab abawasan
mena res
Ġtuwal ya
D SWD
u uwi
ĠP anay
Ġv e
Ġus ing
ĠJoy ce
Ġpampulit ikang
Ġmush room
t uwa
ay way
er ta
ers tar
-- -
ĠComp uter
ĠInt ensity
P L
ĠS ex
ĠB inab
ic ed
Ġnak angiti
Ġpagga stos
emp o
Ġpab abayaan
Ġnatatang i
Ġitinal agang
ograp hy
Ġdisip ulo
Ġda ing
elik ula
Ġkatap usang
h intay
us ing
ĠC J
Ġw ood
Ġin iksyon
una mi
est igo
ĠCh ic
Ġdr um
atak utan
Ġmagt apos
uang co
Ġkampe on
Ġkanay unan
l ayan
Ġkam ukha
qu i
alit ies
atol og
Ġsumas amba
Ġbinaw i
Ġparir ala
R ed
Ġl inseed
Ġpan ulat
atay uan
ĠAr nel
nap ung
ĠIt inat
Ġhold aper
Ġklin ikal
Ġparaphernal ia
f ac
Ġh atulan
um aling
ĠS igurado
Ġc av
ĠB io
ĠPang unahing
erm en
Ġwh ether
ĠDO T
Ġkomp anyang
ĠND RRMC
aak las
Ġbeh ind
ain ed
ĠV hong
av ao
ahag ing
G C
Ġg er
ĠN icol
eb ot
Ġkar ga
Ġlum alaking
rec tions
ĠEd ward
aks idente
ole z
Ġhah ayaan
Ġbinibig yang
ig u
ĠA ND
ĠL ie
qu it
Ġpl ot
Ġpin utol
any ayahan
ĠUS B
Ġsl ide
Ġcurr ent
Ġfingerna il
Ġna ayos
Ġg lob
Ġnak umpirma
ita an
11 5
r ine
el ito
Ġmay bahay
ĠCol menares
Ġtina pos
inar ap
as ta
Ġginaga nap
ft ersh
ĠMo untain
ips is
Ġsul yap
Ġdiplom atic
ĠRus ya
ĠSano fi
Ġpricel ist
N angyari
in ess
ĠN PC
int asan
Ġbar kong
Ġt on
ĠN ol
Ġpags uway
Ġig alang
Ġdel os
ĠTal iping
ĠHen eral
ftersh ock
d et
z ano
ak sak
ĠP ri
Ġis inak
Ġsin u
amb er
Ġad dict
Ġgin ug
Ġhorm onal
Ġkumbins ido
Makal ipas
B unsod
f ine
f eed
Ġb loc
ĠC ash
Ġmo od
ĠIs ipin
umb on
ne um
Ġmagh ihintay
Ġs ipon
Ġang at
re me
Ġo va
ĠC ed
Ġnak olekta
Ġsigur ong
iwas ay
Ġpamum ula
ĠKer win
Ġna ubos
Ġre fer
Ġmas ang
ĠE mail
ĠAn im
ugar in
Ġsub mit
Ġed uc
work ing
ĠKuto ols
K ilala
er hiya
ĠA KO
ip es
ĠT agaytay
res erba
Ġpul gada
Ġnar ating
Ġtub e
kan luran
ici ent
# #
Ġm ist
Ġsa ga
Ġt alingh
ĠRa zon
Ġmina han
ga me
as im
ad d
ĠM other
ĠL GBT
Ġmal ikha
angk ada
kas i
ĠMarket ing
C al
S ir
ĠC ell
ĠV iva
ĠMag iging
MA G
akay in
ĠBurg os
Ġh umpay
Ġc os
Ġsup ermarket
Ġnagh anap
aal ipin
Ġwill ing
d ado
j uangco
m ap
ĠS arm
ert y
uss els
ĠBukid non
Ġin imbitahan
Ġmak am
Ġmat e
ĠJ R
ist on
Ġy ugtong
Ġbin uhay
LE C
Ġmaib ibigay
Ġmanana ya
J MP
s iy
Ġr ange
Ġsumas alamin
ĠHuk uman
Ġw akasan
ĠL iz
aan im
AR MM
ĠVal dez
Ġhel per
Ġbec ome
Ġikal abing
i dic
ag ak
Ġl ahing
Ġh ndi
Ġpang hah
Ġan ino
Ġpana uhin
Ġmik rob
Ġs ising
Ġis alin
ĠT ula
ĠT RO
ih as
ĠV iz
Ġpagp ipinta
arap an
Ġtut ukan
ĠMad rid
Ġrest oration
Ġinstr uc
Ġinirek lamo
Ġtinam ong
ĠBernar do
is uhan
ĠT alaga
em ark
Ġmal ugod
oot an
Ã¡ s
Ġnakar apatang
Ġbibl iya
Ġidina os
Ã ´
el t
Ġin uming
Ġf oundation
Ġnagt atakda
Ġhum uh
ĠEsp eron
Ġ199 6
vis ed
Ġtalud tod
T iyak
ï »¿
ik li
Ġnab abagay
Ġnagp op
ĠMa ja
Ġts uper
Ġconf irm
Ġpaggag atas
m ol
Ġt oro
Ġd ayaan
Ġl alag
Ġma upo
Ġj ose
Ġnum erong
Ġgo ogle
ĠWorm s
Ġmahuh usay
A king
t ulong
on de
Ġf ran
tr ata
Ġnangang anib
Ġsumus ubok
Ġnakik inabang
ĠBe ermen
AY ON
Ġh ipon
ĠB ec
Ġam at
eh in
Ġpagh anga
II I
erat ure
Ġmens aheng
Ġlimit ahan
ĠAv on
Ġcommun ication
Ġsuspen dido
Ġkat at
Ġi angat
Ġsh irt
Ġnab ib
Ġnagh anda
Ġph otos
ĠSho al
Ġm eth
Ġl agda
ul ette
un ugan
ĠI bang
Ġkar elasyon
Ġpul so
ĠSto ck
r abah
ĠG olez
apat ong
ĠW ood
Ġnad agdag
ihim agsik
Ġexp enses
Ġtour ism
Ġgro cery
A ileen
ay abang
ap or
Ġmas aganang
ĠE ag
Ġnat uto
one zh
Ġ os
ĠT ampok
Ġpal pak
PA R
Ġda ily
Ġcook ie
ĠUnd as
Ġbok sing
ĠKailan man
Ġconsum ers
is ismo
ĠS abah
00 00
Ġpagl ahok
Ġcom fort
Ġpanin irahan
Ġmagkag ayon
Ġkabab ayang
Ġask ed
ĠBud d
f air
Ġnan indigan
Ġbot ika
Ġmake up
Ġpinagb ib
Ġevery thing
Hum ingi
Ġkongk reto
w r
at ik
ĠD inala
awa ii
ĠAl vin
alas ing
Ġgo al
ĠCrist ine
dra ul
Ġm ulto
Ġpang kas
ĠSal es
Ġdel iber
ay ahin
ĠK ang
ih iyos
Ġno od
ĠAt torney
Ġsh ares
if ting
Ġnil apitan
Ġ7 1
Ġass ets
Ġint ensity
ukl od
Ġess ays
Ġple naryo
am alas
ĠB alat
Ġan unsyo
ĠIn tramuros
Ġmad a
Ġins ent
Ġbung anga
Ġhabag at
am il
Ġnar iyan
Ġ7 4
rang e
Ġmatat andang
Ġfe at
Ġkapital ista
Ġtrabah ador
v ement
ol yo
ĠI tong
Ġreal ity
ĠAdministr ative
ĠHapon es
Ġpur pose
ar itong
Ġpagkak ilala
Ġkong reso
Ġdis yerto
Ġnakak ahiya
fe ature
Ġnagug utom
Ġt ensyon
ĠB U
ĠB ack
ĠK ayong
ĠO ver
ĠW uhan
Ġmagb ab
Ġtinut ulungan
Ġtinut uligsa
tal k
Ġdiplom at
te es
Ġal cohol
Ġman ukan
Ġsum asailalim
pa id
Ġbub uksan
ĠPamb ansa
agasa an
Ġs eb
iv ated
Ġnags usulong
Ġtin angka
ĠAc celeration
Ġipinat awag
ĠM yanmar
ĠW HO
Ġpags uko
Ġres identeng
Ġsp ar
pat ong
Ġpinap ansin
ĠLum abas
ng an
Ġis inal
Ġg iling
ut la
ĠB ah
he alth
Ġkat hang
ĠF oot
Ġip agd
ĠV is
Ġpap al
Ġbuw aya
Ġme dic
Ġwith drawal
iis ponsor
ĠDem ok
ĠStand ard
yc ling
er ra
or ed
us es
ut ter
ĠI M
ĠRep ort
Ġmakapag s
Ġanim o
ĠSer g
Ġkonstruk syon
ĠAP K
Ġkas ik
Ġit atag
Ġpat awarin
Ġv eter
ill ing
Ġina ny
ĠPa ete
ĠDan ny
K B
Ġa ftershock
ĠRog er
S AN
ĠS apat
id ency
Ġga bayan
Ġpakikipag talik
isk or
mat ch
Ġexp ression
Ġown ers
Ġinj uries
Ġalm ost
ĠLap ena
Ġcrim es
ĠNad ine
ĠLaz aro
Ġmath emat
h and
am ad
es te
ĠN ept
amb it
iga san
Ġme di
ĠCar la
Sum unod
Ġparam eter
O kay
Ġang kin
as iya
Ġh ops
ĠT ulong
alam anan
Ġto wer
ĠO mpong
Ġab ilidad
AL I
Ġtry ing
Ġupd ated
Ġpribil ehiyo
M RT
Ġw ays
ok asyon
Ġpang asiwaan
res sing
abas ura
Ġhe avy
pat an
Ġmod ule
ĠTag le
Bas ta
ĠEk zoderil
Ġimper yal
Ġbog oy
iy um
ĠA bo
ĠR est
Ġmo nas
ĠMag kakaroon
Ġsob er
Ġsitw asyong
Ġnanal ong
ĠD u
ĠG ot
ĠR uso
Ġmags ampa
ĠSp y
ĠNap ansin
ĠOk ay
H anda
Ġpang l
Ġit ayo
Ġkal ig
Ġmam m
ĠAb a
ĠSol omon
ectr um
b ase
t anong
Ġn iyakap
ĠCh ito
rec iate
Ġmin orya
Ġdah ilang
h ood
Ġpap ers
nap rubahan
Ġpart idong
Nag bibigay
Ġ9 165
Ġkamp amento
Ġikin uk
Ġproceed ings
ĠVor onezh
re lated
ep osito
no on
Ġdis p
Ġgay ung
ĠGre ece
ĠSarm iento
L S
i os
Ġp uli
Ġk u
ĠC ycle
Ġpa aralang
Nak apag
Ġcl aret
ihim asok
Ip inahayag
ici ano
Ġmari ing
Ġsop as
Ġsisid lan
Ek zoderil
B et
U E
ong a
ahil o
Ġdo o
Ġ8 2
ee ee
Ġmai intindihan
OR I
Ġdek orasyon
Ġbrand y
g orod
Ġkat abing
Ġpum up
Ġnagd eklara
Ġpananal angin
otto m
Ġmatut ulungan
n it
p alit
Ġl il
um agahan
do nate
Ġpal ibhasa
Ġmanok an
ĠDe ath
pet ual
Ġbun tot
Ġchem ical
Ġimmedi ately
Ġnut ri
ul ado
ry n
Ġpand inig
Ġcam e
ĠM onday
ĠB ina
Ġr ich
Ġf ly
ine a
ate ver
Ġsh ared
ĠSup port
init ely
Ġhinah abol
Ġtinut utulan
Ġfert ili
Ġs ipi
il legal
and alo
Ġum atras
ular yo
Nak ilala
Ġpanl ipunang
Ġbro ther
ĠMad r
Ġtagap ayo
Ġnanana wagan
ĠKons eho
ent aryo
ĠG C
Ġmal igaya
Ġik at
Ġmap apa
Ġrec eption
Ġ8 8
Ġkansel ahin
Pinang unahan
angy ayari
Ġgr id
Ġmangg agaling
ĠTat too
Ġkul ubot
ĠTrib unal
Ġlumalag ong
ap awan
ĠB ub
Ġf ully
Ġnak ang
Ġmal alaki
Ġik aanim
Ġkad ak
ete am
Ġpinagd adaanan
ĠGag awin
Ġgugust uhin
ĠI re
Ġto ilet
Ġkal it
Ġmakat ipid
Ġsas ama
Ġhinat ulan
Ġs ekta
Ġd inggin
uk i
ĠH and
ĠG M
ac co
Ġmas ahol
ĠY u
Ġpagtat apon
Nak ap
igur ong
Ġfore ver
Ġmananag umpay
Ġcondom inium
K uhang
Ġp ing
Ġk ikil
Ġl ung
ĠB ody
ĠF O
ans ag
Ġnais ulat
Ġbil ib
ĠEx pl
Ġsik lo
Ka ilan
ĠFer ry
ĠUm abot
Ġviol ence
Ġtutor ial
i ers
u umpisa
Ġp inggan
ro gen
ĠB ianca
Ġpagl aya
ind alawang
Ġdo ub
Ġnakat ali
Ġ7 7
ĠNap aka
inab uti
led ge
Ik inat
ĠTek n
ng ayon
Ġo thers
ut ihan
Ġlum apag
Ġmang anak
ĠEd sa
Ġisina ra
Ġpinap atay
ĠTe achers
Ġaff ected
Ġmau unawaan
Ġmarar anasan
t ungan
ap ubliko
ĠT U
Ġpro k
âĢĿ ?
ĠUn der
Ġmagag anda
Ġpinal abas
Ġhuk bong
Ġmais akatuparan
ĠPana langin
Ġkid ney
ag ine
om i
Ġsina g
Ġil unsad
Ġmags isi
rek omenda
igur adong
Ġprivil ege
Ġr ibbon
Ġ7 3
Ġhy per
duct ive
l is
ac c
ĠE co
Ġman ika
qu ake
ĠIn vest
Ġpak inig
Ġmakak ahanap
mam asdan
Ġinih atid
Ġibig in
Ġind ex
Ġin timate
Ġit alaga
ment ation
ĠEsp esyal
Ġbak od
Ġtina lo
ĠBer lin
Ġl ater
Ġh ind
ĠN amatay
Ġpagkat uto
Ġroll back
une i
ryst all
Ġpangkab uhayan
T im
ine es
Ġnil agay
Ġnail igtas
ĠAm anda
Ġfe ature
ĠCat anduanes
ĠCle an
grad uate
Ġc ub
Ġnak inabang
ĠL uneta
Ġan us
Ġ' '
Ġmin or
NA K
ĠBu zz
TI ON
Ġinal ok
Ġorganis asyong
8 3
Ġn l
Ġl ak
Ġl igal
Ġtum or
Ġ8 1
ĠGu ar
ikat ura
as ol
ĠM eg
ĠF ight
Ġsh ine
pat ang
Ġref ug
Ġipinak ikita
Ġjack et
A i
B r
Ñ ı
it il
ro at
Ġmas uwerte
Ġsp am
Ġsig la
ĠBr ussels
Ġsik mura
ĠGil bert
Ġrit wal
Ġmak ata
Ġpat ent
ult y
Ġass embly
ĠPat ric
ĠNov gorod
Ġeks enang
Ġaccess ories
Ġvot ers
Ġnagpapas uso
sub scribe
ar get
ĠK uwento
op last
Ġa ari
Ġpanl aban
s ige
ec hias
do uble
co ol
Ġhum inga
Ġmagh ugas
ĠAy oko
Ġcelebr ation
alampas igan
Ġemission s
ĠSime on
+ -
M aliit
Ġl yrics
Ġh aving
ĠM ons
ĠS ist
ĠL en
ka isa
art ista
Ġpay apa
Ġpur poses
ĠCalam ba
b uy
f ew
Ġmal ilimutan
Ġmal imit
Ġlum agda
ĠCo juangco
AT A
Ġstr ateg
go ga
Ag ency
as ion
er ed
ĠW inst
ĠV ish
Ġpagd alaw
Ġput ulin
ĠFel iciano
Ġpagkapang ulo
T agal
j as
l atan
ĠT ip
Ġsina goga
Ġnags i
ĠSam aria
Ġpagka antala
pers onal
Ġnananal angin
Ġfollow ers
ĠNicol as
e a
ul am
ĠP inang
Ġlo vel
ĠAl ma
Ġgr oss
Ġhin uli
Ġmagka isa
Ġkey word
ĠEnri que
B l
D ead
ĠT ig
pap akita
Ġv odka
Ġina angkin
T han
g al
m ok
il ed
Ġl ords
ĠD utch
Ġc art
Ġser ve
ĠNov al
T oto
l akas
ar go
Ġpag trato
ĠP eral
ĠN ilikha
ok ing
ĠE to
Ġnat upok
ĠO z
Ġsus uriin
Ġres ident
Ġsang pung
Ġ8 6
Ġwr iter
Ar t
Ġub an
sy unaryo
Ġbalan ce
Ġtatawag ing
P s
Ġh intuan
ĠS ige
ĠL ipa
ĠR F
ĠR ex
ĠO cean
Ġme ga
ĠPa aralan
Ġipinag diriwang
Ġipag papatuloy
Ġtumat awid
ĠS co
uk ong
ub uting
ĠJ on
Ġant ioxid
Ġ9 7
Ġlant arang
l ene
t ics
ĠH ero
Ġag ree
Ġpagbab akuna
Ġair craft
Ġmanag ot
Ġadv iser
Ġnaghah ari
Ġsuk d
Ġsatis f
draul ic
M ILF
ĠP itong
ĠD ir
Ġin hin
iz abeth
Ġcl in
we ather
Ġover pr
Ġmagkas intahan
R es
ng a
ang aral
Ġmah iya
inig ilan
log an
Ġpakik iisa
ail y
C risto
ol ia
Ġcom b
Ġkina kan
hehe hehehe
Ġkinak asama
Ġhalik an
rain ian
ro d
ĠL PA
ru do
Ġgag ana
Ġpasah erong
Ġcop y
Ġmagmum ula
k ano
ĠP ure
alag ing
Ġnas agip
inat ions
Ġhinah atulan
Ġgen re
lag en
IY A
Ġtranspar ency
Ġexpos ure
ĠD ino
Ġe ither
Ġint indihin
Ġcert ification
Ġperman ente
Ġtuklas in
iy adh
ĠM ain
ĠL ing
Ġpat alsikin
ĠV IP
Ġpinak ak
Ġdo or
ĠLu cena
Ġdec lar
Ġ198 0
ĠPagpap akita
Ġwire less
Ġdistrib utor
t ikan
ĠN apa
Ġworm ing
nin ilay
ĠNest or
Ġlib lib
ĠSin ing
Ġnagtit inda
t ina
ay bay
Ġnag rereklamo
ĠK od
Ġkat iwala
ibig in
ĠTr en
cr ime
S tr
ĠM VP
ta fa
Ġip ako
pl ause
ĠV ille
igt i
Ġcosmet ics
Ġs lim
Ġb ubuo
ĠS ala
ĠD J
Ġpal ihim
oot h
Ġbenef ici
Ġmonas teryo
Ġb inas
ĠD erek
Ġw ife
ic tion
Ġga p
Ġcom edy
Ġnaka uwi
Ġnagh ari
Ġemploy ee
Ġwall paper
Ġduk tor
P aa
y ent
Ġh antungan
Ġw ine
Ġin e
kat ulad
Ġpinat unayan
Ġpinal awak
ĠK araniwang
Ġpro of
Ġst ations
Ġfac tor
Ġcle aring
Ġtod as
Ġpagkad ismaya
ĠCN N
9 3
Ġmal abong
ĠU se
Ġpab ilis
Ġig inagalang
under ing
ĠSin ubukan
, âĢĻ
Ġna iwang
as ig
ek a
Ġisk or
ĠNic ole
r io
Ġd il
re view
ug pong
ĠE pekto
Ġhin ila
Ġnapag tanto
Ġmalag kit
D oon
I tong
T rabaho
al uhan
Ġmal igayang
ĠO IC
Ġpinag hah
ĠNak aka
Ġpananak ot
Ġnagkas akit
Ġpag es
ro pa
ĠB lan
ĠO ld
Ġkab ag
Ġtum akbong
Ġgum anti
Ġpagpap adulas
AN DA
Ġpab ulang
Ġpagsus umite
sc reen
inab le
Hin ih
Ġn itro
re lease
Ġkap antay
Ġsum angguni
ĠAl amat
Ġnal abi
Ġreh ab
ĠAnti que
ĠLap u
Ġsensit ibo
al isyon
Ġk ili
Ġt ebs
Ġw elfare
Ġsum alpok
DO Tr
ĠDar na
Ġcount s
b ahagi
Ġs end
Ġm embro
ĠM ol
Ġw ent
ĠL upon
ĠH err
Ġre pro
Ġpagl utas
Ġmil k
Ġcar go
Ġdem ol
Ġaff iliate
Ġsensit ibong
ĠB igla
Ġnang anak
Ġst im
out s
Ġbo und
Ġkont in
Ġph ilipp
igd as
ĠPananal ita
ĠInih ayag
Ġp oker
Ġna aprubahan
Ġbu as
ĠPa ulo
Ġpagkamay abong
K risto
ay og
ĠD os
ĠG ang
Ġkat ol
Ġmakak arating
ear s
Ġpinagp ala
trat rabaho
w aring
Ġna upo
Ġb ayag
en es
ad pad
ĠT AO
Ġlum il
ory enteng
Ġisin ulong
Ġhinah ayaan
ĠArn old
ĠBrill antes
m araming
p arang
y aman
× ¨
Ġmak alimutan
ort ado
ĠV erm
if ul
Ġnar s
aki usap
ĠGam ing
Ak ala
ĠThan k
ĠJude a
Ġungg oy
r un
ar b
ĠPh ase
de f
Ġtab la
Ġtal uk
ĠiP ad
Ġpamant asan
c ore
h ating
Ġb order
Ġl ans
Ġl usot
ĠM AK
ĠD BM
Ġnak o
Ġ1 30
ĠJ O
ĠJ ustin
Ġpags akay
Ġpinag sanib
pag pap
abag an
Ġprop olis
ous and
Ġpinang arap
Ġsert ipikasyon
Ġinos enteng
Y o
Ġh irang
Ġc oconut
Ġmak ar
ĠJ oc
ĠW ang
Ġpags ugpo
Ġpagp uno
Ġnagd arasal
Ġpagg uhit
ĠGab by
Ġsle ep
Ġiregular idad
Ġm inar
Ġc ord
Ġhe ating
Ġitin uring
rel asyon
ĠMab isang
Ġprost it
Ġsant uario
an ish
ĠAd v
Nak u
Tum anggi
Ġtatawag in
ĠAlj ur
9 4
b uo
ap ula
Ġd ental
ent ina
ĠK alinga
ĠAl abang
aban ta
ĠEsp irit
Ġpaghah abol
Ġlingg uhang
Ġfr ustr
Ġsor presa
Ġnakabin bin
T P
al ahad
Ġ19 70
rec ruit
ĠMis amis
i ables
ak tibong
Ġpagt anda
ĠAc cess
Ġtuw irang
Ġumi ibig
Sin imulan
ĠLGU s
Ġtrail er
Ġharass ment
l t
Ġs irang
ĠP SC
ĠM useum
ac o
Ġre ef
uns ulta
ĠCO C
Ġcar to
ĠNasa an
umigm igan
b atas
al y
or ter
ĠS tore
ih iya
ĠR ise
Ġmap adali
alik a
Ġ10 1
Ġnakita an
vers e
Ġdest ination
Ġkost umer
L a
ĠL ex
Ġkas ak
Ġpagp ayag
Ġpr ison
Ġex ecut
iwanag an
ĠAs iria
ĠFran che
Ġimpl ant
ende z
Ġabs ol
n ect
en na
Ġmas alimuot
ĠPang kat
ansin in
Ġhigh est
Ġland line
Ġnob ya
B ulate
an unsyo
st yle
IN I
Ġsep ar
Ġmapal ad
Amer ican
u dia
ayan ang
ast usin
ĠTr abaho
Ġus ab
Ġhil ahin
ĠIb in
Ġsqu ad
Ġhig anteng
T al
am yenda
Ġd it
ĠD un
ĠN arinig
ĠT upa
Ġpang a
ĠCh iz
ĠMar lon
Ġex port
ĠPr ansiya
ĠCor rections
Ġ199 1
6 39
Ġd ump
Ġmak aramdam
Ġpersonal ities
ĠRe f
Ġmanl aban
Ġrem ember
van ced
Ġmasak op
Ġ anal
ĠIn di
ĠBr itanya
Ġtuw ang
ĠMor oc
ðŁ ĺ
Ġtagapang asiwa
Ġkalder eta
K ayo
P ati
Ġnak ataas
itan ong
ĠPang aniban
Ġas h
Ġas osasyon
ĠAl berto
uman ta
Ġharang in
Ġinsent ibo
I nan
ant ig
ĠMak ilala
Ġrespons ible
mpalat ayang
Ġl ivelihood
ĠA mang
Ġnag n
Ġnag reklamo
Ġka u
Ġmak amtan
Ġnangang ati
Ġqu ote
Ġisas agawang
Ġnalal abi
ĠP aro
Ġres ist
Ġent rance
........ ..
ĠCana an
Ġmith iin
ĠF A
Ġpamam ahayag
Ġst ak
Ġkag yat
Ġnar co
ilit i
ĠQ uin
abal ot
ĠL olo
Ġar aling
Ġres idential
Ġsinas alita
ont i
pa ano
Na unang
olog o
Ġtar ipa
Ġover time
ĠPagp asok
Ġmagbub ukas
ĠChic ago
U A
l ie
Ġpag asa
or um
ĠA my
Ġkat im
Ġauto matic
yonar yo
Ġdalaw ampu
r ender
Ġl es
Ġkat unggali
ĠF un
Ġ9 6
Ġgu ide
ich y
Ġpamp an
Ġhappen ed
ĠRonal do
H AY
a abang
s ila
Ġn urses
ĠP ilit
ĠM V
ĠD iliman
Ġin cent
pl ot
atag umpay
Ġkumb aga
Ġkahal umigmigan
Ġwal k
ad er
tr ip
amp ang
ĠRo om
sh oot
Ġfarm ers
Ġparok ya
SAG OT
. -
H ayaan
h along
k oryenteng
am ahagi
ĠK u
ĠL ina
Ġpagpapat alsik
Ġdel egasyon
au ayan
Ġover all
Ġsib akin
Ġround worm
ĠSir ia
in uman
Ġg ig
Ġpat ok
Ġhe ight
Ġkinaka usap
Ġnamam agang
ĠNiz h
L ord
Ġh inag
Ġis p
ug it
Ġman ing
Ġel ectoral
Ġbit ay
umb ok
ĠAb aya
Ġ8 3
mb ps
ĠBe auty
Ġnakar aranas
Ġste am
Pina p
Ġmakit id
z he
z ine
Ġs uwerte
Ġg ust
ĠI giniit
ih it
Ġpang ong
ĠF riday
Ġe bay
Ġch ito
hah aha
Ġnaip ap
Ġub asan
Ġpaghuh ukom
Ġnakakag ulat
T M
y ur
Ñ Į
Ġp ier
uh u
Ġf ray
Ġf lood
aba eng
ĠEn erhiya
ĠMat anda
Ġhil agaan
akal ungkot
Ġpagkap analo
ĠUl tra
Ġl inawin
el yo
Ġhal al
Ġgay ahin
Ġmamah alin
Ġhahanap in
Â ©
Ġmar es
Ġcompl a
Ġfunc tional
Ġroll er
angkilik in
1 20
ag pas
ĠC im
Ġnap apat
Ġpal asyo
ou ch
Ġpunto d
ĠJeh ovah
Ġcommit ted
ĠPinap ayagan
Ġdism iss
w orld
Ġl ana
ĠP indutin
ĠC uneta
ĠT ree
ens ahe
Ġban tog
Ġsum abak
ins p
ost ic
Ġstr anded
Ġend ing
Hin imok
ĠMil k
Ġawtor isadong
ĠApol inario
ĠMarcel ino
T alagang
m us
y entong
Ġm ys
ul ukan
ab ilidad
ĠM I
Ġmag uli
Ġkan lurang
ac le
Ġnags usulat
Ġbum bero
Ġnagd aan
Ġle ague
Ġnagmam adali
Ġloh ika
g on
ĠM it
ĠI an
inang anak
ĠSal ud
Ġpinap asok
ily n
leg es
ocal ipsis
UL A
Ġambass ador
r us
up uan
Ġnap aslang
Ġop tions
ĠDi ana
ĠMas arap
Nag ulat
Ġipinag mamalaki
Ġkons eho
Ġbiy enan
Ġjob s
Ġevac ue
Ġpagkakab ukod
l ik
ĠG uy
Ġkal ayuan
Ġinil alabas
ĠSer ge
Ġpinang ungunahan
tol ome
AH AT
Ġitat ayo
F orm
h ina
is ik
ĠP IN
up itan
ĠD igital
ĠT H
Ġf raud
Ġsum ampalataya
Ġbr ush
Ġnakap asa
Ġhakbang in
Ġsty ling
g han
m igs
ot ic
ĠT amang
Ġma ig
Ġkal ayo
ĠBel la
Ġsuliran ing
sel ves
ĠHol lywood
enan t
Ġmetabol ismo
Ġup a
Ġpan itikang
Ġbal os
Ġipag kaloob
ĠEl ektr
Ġide al
Ġenter prise
Ġfour th
ĠNagk aka
w ili
Ġn erb
er ubin
Ġnat ulog
Ġto yo
Ġut en
Ġdina nas
Ġposs ession
ĠIf ugao
ĠNoval iches
p uso
Ġb inans
Ġal ong
Ġmab uksan
Ġsin isingil
Ġpre vious
ĠGr abe
ĠTag umpay
Ġwar ming
Ġbot ong
ahah aha
Ġpinagk aka
Ġeconom y
aci enda
a awit
Ġk rudo
Ġmag reklamo
Ġnagt ago
Ġmakak amtan
Ġmapag tanto
Ġts art
ĠaEUR o
Ġpl ug
usap in
Ġmar uming
Ġ8 7
Ġgen erator
Ġfo under
Posible ng
ĠLeb anon
u uri
Ä ±
ĠI SO
ob leng
igh s
Ġmar ch
Ġ9 1
ĠNo e
ĠFinan cial
ad agdag
Ġpagd agsa
Ġtransport ation
Ġpek pek
M in
l ers
er cis
ap id
or ing
Ġpagk apagod
ĠE ver
Ġy ah
ost on
Ġih ambing
Pum unta
ĠVietnam ese
ĠBroad cast
m ado
ĠH ahaha
Ġisin umpa
Ġts unami
ĠEng land
ĠStat ement
Ġkod igong
Ġkalapat i
Ġkan ikan
ĠT iw
Ġpang atlo
ant as
aral in
Ġpangang ampanya
ĠSi x
ĠJo jo
ĠKin ilala
ĠBoy s
Ġdalaw ampung
Ġdib isyon
ĠChampion ship
i ah
p ala
ayo ff
ĠU no
Ġkap a
Ġtinat ahak
Ġnapap anahong
Ġplan ning
Ġinaak ala
ĠDIY OS
T ab
ong o
ĠN ina
ĠG DP
Ġv ir
rang alan
Ġmabig yang
ĠOrgan ic
ĠJav ier
Ġvill age
ĠHind u
Ġnl ng
ĠCim atu
p g
Ġg own
ĠN U
Ġkal abaw
Ġpags alungat
Ġsp ectrum
Ġme at
Ġsub division
Ġtrip le
Ġexemp tion
es p
Ġin mates
Ġgum uho
Ġnapak alakas
Ġsy ensya
Ġinat ake
Ġnaib alik
ĠMir anda
E l
F olk
ak las
alak pakan
Ġum al
Ġpagt akas
Ġtinut ulan
As s
andel aria
Ġlovel ife
g ia
Ġl ost
ĠS ING
ĠE ye
Ġkal alim
qu arantine
ĠDr ive
Ġsens or
Ġkateg oryang
Ġsuccess ful
Nagpap asalamat
p angk
er as
ab anal
ĠP I
Ġmat ang
Ġkas u
ares ma
inter view
Ġcryp to
z y
Ġs even
ĠS ayang
Ġstr ip
Ð° Ð
D PWH
ĠT ower
ĠPag asa
Ġbat tle
Ġlib el
rom iso
Ġstand ards
Ġlathala in
PAT AY
g atas
Ġna ik
ĠN abawasan
Ġmal unasan
Ġil ayo
ram ework
Ġtro ops
Ġkapal pakan
cr ack
Ġalg ebra
Ġ Î
ĠE ly
Ġkah ina
Ġprob e
Ġpamp ahid
ĠDO TC
ĠJo ab
200 1
Ġpa ir
ĠE UR
Ġdi al
Ġmatut uloy
Ġaktib ista
Ġkontrab ida
J ohn
k abuuang
p uin
Ġb ird
Ġg ather
ĠL evel
mp ot
Ġpagtat ago
ĠEl iseo
Ġmakab ubuti
Ġinit ial
ĠTrad isyonal
C MD
Ġm es
ĠM ut
ĠS top
ac tor
Ġkab ilog
Ġnap ilitang
old ap
Ġpagkal kula
M abuti
Ġd alampasigan
ab insk
Ġmagb ib
ĠKap al
ass y
Ġbers iyon
d iyos
Ġs iping
am ong
Ġb uns
Ġtr ump
Ġtum alikod
Ġap a
ĠÂ ©
No on
ĠPak istan
ĠJim my
Ġektar ya
iy ano
ut ube
ĠC ac
ĠI van
ĠW ild
ahal al
err ero
ĠVel oso
Ġb w
ĠD amas
est ation
Ġil ilipat
Ġini inom
ĠEl izabeth
ĠPl astic
Ġbinal aan
Ġfavor ite
Ġpamam alakad
Ġpagd arasal
ĠZ al
ĠPagk aka
ĠDr agon
ĠSam akatwid
ĠCl ick
Ġhig pitan
Ġpyr antel
ĠK y
et ine
ĠH is
Ġkat any
Ġnil abas
Ġsystem s
ĠLib ingan
ĠPagb ub
Ġatr aksyon
ĠFerr er
S apagkat
W S
Ġp insalang
Ġk apos
ar angkada
ĠB il
ĠG uan
Ġkar ibal
ĠBill y
ĠStat istics
ĠAwit in
oplast y
Ġf eb
Ġdum aranas
ĠPr osp
ĠMad ali
Ġmakas alanang
ĠTal k
Ġcandid acy
E E
p awis
it age
ĠT ob
ac tions
Ġkas unduang
pl ace
Ġprob able
ĠMo vie
ĠNot ice
ĠHerr era
A wit
Ġr ide
Ġf ormal
uw irang
amb ahan
uc onazole
anag ot
ĠY amang
Ġclaim s
fil ter
stitus yong
Ġkatany agan
D alawa
U G
v ar
Ġt ile
ur h
Ġnak akasama
Ġpres ensiya
IP IN
Ġpur ihin
sob ispo
abar zon
ĠMadr igal
as am
iy ado
ĠA ug
Ġmag a
ĠD aily
ĠK umbaga
ĠL oy
Ġmak ialam
Ġnags ampa
ĠBar tolome
ĠRa quel
Ġnagpak ilalang
ĠKaz akh
c ode
ag alak
ĠP ow
Ġni reres
ub k
Ġmal alapit
Ġpags unog
Ġinter ior
MAN G
Ġkaram patang
Ġid olo
Ġteor yang
Ġbeter anong
Ġpagtatak sil
Ġna damay
ro zen
Ġpags ama
Ġpagl alaan
uyo g
ĠPol and
aut iful
i imbestigahan
ak inabangan
ĠM NLF
ĠC ala
ĠU RL
Ġtum uloy
Ġmagk amali
ĠCh ely
ĠAn ime
Ġ19 60
Ġbar anggay
ĠLim ang
Ġmapang alagaan
Ġdy namic
olus yong
Part ikular
Ġt ech
ad alisay
Ġg land
res pond
ĠPang alawa
ast usan
Ġul ihi
ĠPA O
Ġtok en
arest ong
ĠAmm on
ĠL ay
Ġkam e
ĠCh ange
Ġipag kakaloob
ĠAbd ul
ĠK umanta
Ġpam ahiin
Ġkap intasan
ĠAr c
ĠIl igan
ĠHap py
del iver
Ġsasa ilalim
B y
Ġna ipon
ĠT eres
Ġf inger
ĠL uke
ĠG obyerno
ĠAt hlet
ĠAn di
ilis ta
ors hip
land o
ĠCal abarzon
ĠAll en
Ġhous ehold
ĠAga fia
Ġimin umungkahi
dep loy
, !
N apat
d evelop
m illion
as ha
ĠP V
Ġg iya
Ġpro to
Ġand un
Ġpan c
ex pl
bos lim
Ġsising ilin
as quez
am es
on da
ut ral
ans i
ore al
BA B
Ġkons ensya
ĠPak ikipag
Ġaccom pl
ĠChely abinsk
S en
m itan
aw n
ĠL okal
ĠG uro
Ġpam imili
Ġkat aas
Ġpagt iyak
ma aaring
Ġpagsas aka
Ġpati ents
ĠMed ina
Ġbi ology
Ġkapat agan
ĠVat ican
I BIG
P e
l are
at aw
ĠT od
Ġban lawan
pat otoo
ĠSec ond
Ġnah ah
Ġtind ig
Ġpek as
Ġlam esa
Ġnakatat andang
ĠIre land
c onduct
p ia
s can
ĠD agdagan
ĠNat at
Ġcomp act
ĠLet ran
ĠD alawa
ur yente
em et
Ġor asan
Ġdi rec
Ġst amp
Ġnagt ulak
Ġmang aral
AL O
Ġlalak eng
abat ikos
ilat eral
I nal
Ġ ;
ĠM ill
Ġg ikan
ĠD ayan
ur no
ungk at
man n
Ġreport ers
Ġtax es
Ġmanag inip
ĠEm irates
ĠNah aharap
ĠVlad imir
Ġcustom ers
ĠPeral ta
d ero
k apag
Ġb ac
Ġg iving
Ġc loud
Ġpagk olekta
ĠPang alawang
Ġpagl alabas
Ġben ch
ĠTin iyak
ĠCir cle
t ure
Ġ ï¿½ï¿½ï¿½ï¿½
an yo
ĠI h
uri an
Ġpr in
Ġnah anap
Ġhand le
Ġrad iation
ĠMon ey
Ġsinak sak
Ġpinakas ikat
D on
Ã §
ĠB MP
yo pat
ĠL ubos
ika an
Ġdis h
mas aya
Ġsumas agot
Ġmagkaka iba
L Y
is hi
Ġpar oroon
Ġg unita
ĠT A
Ġpagl ing
Ġap nea
ĠMan l
se ed
ĠBr unei
rom ag
Ġresp ir
go ing
ĠGum amit
Ġapar atong
Ġalang anin
Ġbinat ang
ĠStrip ping
Ġrey na
Ġdign idad
Ġd orm
Ġmas asama
Ġba it
Ġsal akayin
dib ilidad
Ġpin unong
ret chen
Ġipina alam
low een
Ġhinih inging
Ġpinal awig
Ġrep olyo
SW S
ĠCH ED
show biz
t ance
ul utang
ung unang
ac ha
Ġbas yo
ĠGen er
Ġpis kal
Ġmasas ayang
Ġsumasak op
Ġpino protektahan
Ġdib ors
Ġcontrac tor
= =
ĠP anag
ĠV enez
Ġpagl amig
Ġser ving
Ġtinat alakay
PA L
Ġkuw estiy
Ġterm inong
Ġtrad emark
Ġport al
Ġbook s
Ġbug tong
ĠEf eso
Ġhati in
Ġdikt ador
Ġ uhaw
Ġm unti
ĠT ungkulin
Ġma isa
Ġpum indot
Ġmam uno
Ġinil ahad
ĠCl ara
ĠKatol ika
J o
L en
Ġy es
Ġnab alitaan
kat ut
Ġpir di
him agsik
Ġbear er
b its
c aster
Ã ¤
Ġat ak
ĠJ ak
ver ty
Ġnamam alagi
Ġkill ing
M agd
s ip
Ġm ention
al ewala
ro ve
ĠC ond
uw aan
ata uhang
Ġsin uportahan
ĠNa uunawaan
Ġaccount ing
ĠKab uhayan
pal itan
Ġsto ol
Ġelektr isidad
ĠCamb ridge
al ista
Ġt uring
Ġg over
Ġmay on
Ġnakak akilala
Ġnagl aro
Ġ9 00
Ġbo obs
iisip an
Ġinc umb
Ġpip ino
Ġsuk atan
Ġnagtut ulak
A c
H anapin
Ġis inis
ĠS abay
ĠR affy
ant ya
ilip ol
ast iko
Ġpas alamatan
Ġpinag kak
Na aresto
Ġpinags asama
pana hon
ĠLar ry
f oli
ĠF isher
Ġth r
Ġth y
sp ir
ret to
RT C
ĠBul ate
Ġmall s
Ġqualif ied
Ġkred ito
P ap
Ġsa wa
Ġk ick
ay pay
ĠA G
ĠM et
ĠD ist
iw ayway
Ġdis qualif
Ġpre fix
IA A
alon ica
ĠBut ch
ĠExpress way
Ġmalikha ing
Ġmag taas
Ġnak opya
Ġpang anga
Ġal er
ĠY ang
Ġnil ul
ĠArt uro
Ġnagkas undo
N S
na wagan
Ġpagk abilanggo
alag as
res cue
inat ikos
Ġmad alang
Ġcon vey
ĠEn c
ĠRod el
ĠCon stant
Ġkill er
ĠGent leman
Ġtir ik
Ġb und
ĠG inang
Ġkar anasang
Ġnakak aramdam
Ġkak anin
ĠNang angailangan
ĠNap ap
E X
w anan
ĠT ap
Ġal arm
Ġik ak
ĠIs mael
Ġj apan
Ġsab ungan
ire na
Ġnagh intay
ich ay
ĠReg al
ĠHe at
ĠInd ep
tat anggol
ĠId ina
Ġmagre ply
Ġp oder
Ġna ipag
ĠP andaigdig
ĠA ff
Ġpam ana
Ġpak is
AT F
Ġâ ¬
Ġjo joba
Ġdest ro
I yan
h ibit
s ilangan
Ġna unawaan
ĠR ot
Ġpagb aril
Ġpab ayaan
any ak
ĠMac al
IC T
Ġproblem s
Nas awi
ads ad
ĠAf ghan
w iling
Ġh inarap
un ya
ĠD io
Ġin coming
Ġ( )
Ġcon duc
pag t
IL ANG
ona to
Ġpala isipan
Ġsidel ines
Ġkikil alanin
w ise
tr an
Ġsin umpa
end ar
long apo
Ġnagpap abuti
ĠOc t
ox um
Nan indigan
B est
ic io
Ġoff ense
Ġnakar araan
Ġ198 9
ĠAlf red
Ġuto d
i di
ĠB aal
Ġin utos
Ġnam im
aram bong
ĠV ichy
ear l
ĠAd vent
An ti
mat ure
uch a
Ġstor age
nd oy
Ġnanging inig
ĠCop per
Ġmikrob yo
in f
Ġt reas
ad just
re cover
ĠC able
iw alag
Ġas ong
Ġdum adaloy
ect ure
Ġweb cam
ĠAg ham
AG O
isk edyul
ĠBo C
Ġwa iting
Ġbabalik an
ĠVir g
P ersonal
u u
or ce
ĠP alagi
ĠD C
ĠD ra
ĠC redit
ub aran
Ġf ir
ĠR ita
Ġsal igan
Ġ9 8
err al
Ġthem e
ĠPum asok
alleng e
ĠJeff rey
Ġnalil igo
Ġpromot ion
P inan
b ank
g aya
ĠP AN
Ġr ain
sa ult
ran to
Ġvol leyball
ĠSte phen
orr or
B ukas
Ġsa ve
Ġt amp
Ġg na
Ġnak iusap
Ġpos e
Ġlib an
Ġmakak alimutan
log in
operat ive
Ġâ¬ ©
L istahan
ĠD H
Ġw he
Ġkah andaan
Ġmap ili
Ġproduk tibo
lay as
Ġmagd asal
ĠGu errero
Ġwr iting
ĠRog elio
Ġgeomet ry
Ġnood les
h anggan
Ġag ents
Ġnagpap utok
Ġnah uling
Ġpah aba
ĠTaiwan ese
Ġsumas agi
Ġamn esty
eneg osyo
ĠT rolley
Ġar row
Ġano pa
Ġnakak abit
Ġnagtat agal
ĠRes ulta
Ġet n
Ġsad ya
Ġalg or
Ġh ihinto
Ġh erring
Ġip arating
Ġpum alo
ell i
Ġro les
Ġrelih iyong
Um apela
ĠGan yan
exp ire
Ġsemif inals
k ahulugan
ay as
Ġl ad
Ġw oman
ĠJ ong
âĢĻ ,
ha v
ind ang
Ġas tronom
ĠAn uman
Ġimp ression
Ġmagb akasyon
ĠSt ations
Ġnakap iit
It inat
Ġpagkab abae
al igtad
and ahin
ĠT ahimik
ĠF OR
Ġkam ara
orm ang
Ġmab ayad
Ġsol di
Ġprins esa
Ġlumang oy
ĠPol icy
Q CPD
t el
ul os
lim ited
Ġcur few
ĠPagtat asa
Ġtalingh aga
Ġpar urusahan
ub i
ĠG eron
ĠR oll
ill as
Ġpinakam ah
ee f
Ġpah irapan
per as
Ġpinat awad
Ġcell s
Isa ias
ĠBig lang
Ġpinapat akbo
Ġgall ery
, ...
B o
m atagalang
ĠB la
ĠF o
ĠF riend
Ġto ok
Ġpagl ang
Ġbint ang
Ġtim ing
ĠMen diola
Ġcop yright
fol io
Ġmouth piece
H H
f el
s ari
as enso
Ġh ep
ĠS id
Ġma awa
Ġlum alakad
Ġpinak al
Ġpagh ahayag
Ġmang ags
Ġpakik i
Ġbom bing
ĠBI FF
ĠNagp akita
Ġjournal ist
Ġprevent ive
B R
v ass
Ġn d
Ġc ops
int ahang
Ġdi ret
Ġth inner
Ġsar iwa
inis mo
pag e
Ġnan laban
ĠSec ret
Ġlet ra
Ġbeter ano
gum agana
ĠJin ping
p wede
t ies
ar ik
ak ala
aw ikain
Ġko operat
Ġtum awa
ext end
Ġadd itional
Ġkapak inabangan
Ġmagpapat unay
Ġkadak ilaan
Ġt alim
ĠD acer
sa u
Ġe asy
Ġdin inig
ĠCo operation
ĠDis posisyon
Ġgin ustong
Ka ilangang
ĠMM FF
Ġlight ening
conf ine
Gen esis
ĠSpr ay
S abihin
Ġp ure
Ġl arang
ic ar
ens iyal
Ġtum atayong
ĠUn ti
Ġwe apon
Ġmatat awag
Ġcirc um
Ġtamb alan
Ġdeal er
Ġpilit in
Ðµ Ð
Ġvess els
Ġbangga an
p us
p ha
Ġ ,,
il alas
ĠA ce
Ġbuh os
no ut
Ġnah awa
Ġmakapag pap
ĠIt ina
hel lo
Ġsas agot
ĠRos al
Ġincumb ent
R IS
g irl
Ġn emo
Ġl ote
Ġis usulong
ol in
ĠR un
Ġpang anak
uri er
amb ulan
Ġhin intay
Ġnagh iwalay
Ġtest s
ĠAct ually
BI R
conf igure
U W
v isit
an n
Ġk awang
Ġt ad
en co
Ġre patri
ate gy
Ġpagpap ahirap
Ġmap alitan
Ġsig nat
Ġnah atulan
SA F
ĠPr im
Ġkom iks
Ġpek lat
Ã³ ng
Ġquarter f
Ġh u
uw estyon
Ġup grade
Ġnakat agpo
Ġtinat amasa
ĠKas unod
Ina resto
ĠImp iyerno
Ġamer ikano
M art
Ġp irma
ag undong
Ġt ali
ĠU ser
Ġy atang
hang lan
Ġnanal angin
ĠDim ex
t asan
Ġd ash
Ġl ent
ĠP era
ĠM AL
ĠT uwing
ch ita
ĠMag patuloy
Ġnagpap anggap
ĠAc es
nila an
Ġident ification
Ġappe al
N AN
Ġm inabuti
Ġk ultural
og o
Ġit ak
Ġpagl ayo
pek siyon
lam e
Ġpagsus uot
Ġdel e
amat uwid
cle an
arl ika
ĠVP N
S ugatan
Ġ %
ĠK AY
om eter
Ġtungk od
ĠCar bon
rat s
T ito
ul ungang
ep res
Ġal is
Ġpap ayagang
Ġbas ement
ĠSt ud
ahal ata
Ġmagh apon
Ġkatang i
ĠCap tain
ĠCath edral
B alitanghali
man i
pag l
ĠSum mer
AS T
Ġpagpup unyagi
G raft
ap u
ĠP ichay
ĠT able
ĠL ani
ĠH ad
ĠE va
ĠF R
Ġno h
Ġdr ill
Ġpagg iling
ĠMac au
Ġexp ected
Ġsib at
ĠMer ced
quir y
M ang
c ument
ur f
ĠG antsilyo
Ġpinag bigyan
ĠAk bayan
Ġcol on
Ġcab in
ĠProsp ero
S iniguro
ĠM L
ĠS D
ip yo
bi al
Ġmapag p
ĠEst elle
ĠPac man
Ġhap p
Ġconf ir
Ġallow ed
y ahe
Ġd vd
ĠP erm
ib ago
ĠT re
ĠL ugar
ari ang
Ġtr ibo
Ġmab ili
Ġpinakam alakas
Ġstr ugg
Ġih iwalay
lib ee
Mah igpit
k el
ar el
Ġw or
Ġmab igo
ial ay
Ġpagbub ukod
Ġnagpas imula
Ġden om
ĠEngine ering
c ond
us ion
Ġnag taas
Ġam yendahan
Ġsum asalungat
Ġmang ak
Ġmakat arungang
Ġtagapag p
Ch ief
Ġalok asyon
ĠMarc elo
Ġinos ente
ĠPanat ilihin
D ENR
S K
ĠT ropical
Ġmas agot
ĠMar ines
Ġch ocolate
ĠTr ading
ual ity
ĠEx p
Ġmagd eklara
Ġpinal akas
ĠPina ka
Ġblock chain
ĠJed dah
Ġsatisf action
s ites
t ipon
Ġv oice
qu ency
Ġes tafa
Ġsas ali
Ġpolit ikal
Ġmakas arili
Ġpagkakas unud
Ġikin uwento
Ġkaba itan
Ġkinau ukulan
Ġdoll ar
ĠR ules
Ġum iral
st ag
ack s
Ġkuw intas
Ġnagpapat upad
Ġhiw alayan
ĠUr ban
asik aso
Ġpananam bang
ĠAppro priations
I yong
â Ĥ¬
ĠH anggan
ĠG retchen
Ġgina stos
ĠIn yong
Ġcons umption
uwel to
ĠProp es
W hen
Ġs ter
Ġp utong
Ġp neum
Ġmag alang
ol ong
uh og
Ġil iligtas
Ġres training
Ġap ply
Ġnagp o
Ġsinas adyang
Ġnapak ataas
ĠUS S
Ġkaginh awaan
P l
y ot
ul p
ĠA MA
Ġmag retiro
ĠG anap
Ġpina igting
ans amantalang
Ġmagb abasa
inaw an
Ġro yal
Ġpamb ub
Ġmai iwan
Ġpus on
ĠBin ondo
Ġnakakah awa
ĠIntegr ated
Ġtsin elas
il ito
Ġg ene
uk ar
ĠT aboy
ĠL akers
ĠG ib
ĠPilip ina
Ġpre g
Ġmagh ari
ahad lang
Ġinab isuhan
ĠNagpapat otoo
ĠTeres ita
E sp
n is
y uhan
ĠL av
Ġpags ipsip
eb o
ĠMay weather
ĠQ ur
ĠMal ate
pres yo
Ġrelihiyos o
Ġnagkaka isa
Ġnecess ary
Sing aw
Ġd ante
ĠE pektibong
Ġe ight
Ġkam atis
Ġan chor
Ġbar b
ress ed
Ġmakab ayan
ĠAm argo
ĠVol cano
abet is
Ġrumes ponde
Ġveget arian
Ġhalim aw
ihiyos ong
Ġis ol
ĠS ens
Ġtul aran
igur ation
Ġamn estiya
ĠPatric ia
R om
Ġd uta
Ġma o
abag abag
CO A
Ġsis i
Ã¡ y
Ġfollow ing
Ġcondition er
orer x
Ġfrat ernity
ul ugod
ĠS andaang
Ġe banghel
Ġtum ambad
Ġi reklamo
Ġtab leta
enn ial
Ġemploy ers
abat uan
Ġdug ong
Ġanaly tical
ĠTurk ish
ĠP el
Ġf er
Ġsak upin
ĠPr ivate
Ġcar di
ĠSer ver
Ġipinah iwatig
TA DO
olit ika
ĠAK ING
Ġbibil hin
V ideo
ĠC os
ĠC onduct
ĠT wo
ĠH aha
Ġam ino
20 11
Ġent ire
Ġtawag ing
ĠRev ised
Ġkilom eters
Ġsecond s
ĠOp le
Ġsiyent ipikong
Ġstick er
ĠTiw aling
L ES
on ics
Ġma al
imb abaw
Ġtag at
umang a
Ġwith draw
Ġmus ical
CB CP
Ġcap tain
Ġnakakat ugon
Ġnaip asa
Ġju dicial
C op
Ġ ign
re pr
lo p
Ġgum ising
IL O
Ġtinat ag
Ġpagkakas undo
ĠAS F
Ġnagag alit
N amatay
ĠC re
Ġc abatuan
Ġmagk atawang
ko ut
ex c
Pin una
M awalan
ĠM isa
ĠH T
ĠG arden
Ġsal igang
Ġsub poena
Ġ8 9
ĠSp ace
CO S
ĠIng g
Ġsamant ala
Ġsyn th
N atagpuan
V S
Ġp uksain
ĠP ig
Ġpagb iyahe
Ġik ulong
pag s
Ġitin uloy
Ġmagl alagay
ĠOr lando
ĠIV F
br ero
ubk ob
Ġk untento
ĠD ure
ĠB undok
ĠI kad
ĠR an
Ġy rs
Ġwork s
Ġpolit ics
ĠMed iter
abal ahan
mi ere
att end
Ġcheap est
Ġsn orerx
um es
ĠA mal
Ġnapak ahalagang
old s
sc ape
Ġisin iwalat
Ġinv itation
ĠTur boslim
ĠWord s
ĠMod elo
Ġprog resibong
z ech
al uan
Ġb alag
Ġt igdas
is dang
ap ad
ul u
di wa
ĠR av
ĠR iyadh
Ġmas ust
nal ig
Ġtel ep
Ġparir ito
ĠRow ena
B ig
v alo
ĠG inoong
Ġmak iisa
Ġbr idge
ĠLe a
ĠBak bakan
ĠMilit ar
Ġlumul utang
ĠPangkal ahatang
ul anan
ĠM ena
apang an
ĠDO E
gad ong
ĠUA E
Ġkre dibilidad
ĠVerm oxum
b ully
Ġd an
ĠN umber
and ok
Ġkal asag
Ġam end
Ġbum ul
Ġnagl aho
Ġback up
Ġpus p
Ch ina
adal han
ĠCons truction
r iba
Ġ àª
ĠS inis
Ġg ayun
up kop
ĠD ala
Ġpags ira
Ġpres t
iling on
Ġsak an
Ġmar alita
ekt ang
Ġya o
AH AH
ĠPract ices
ul ap
Ġc up
ĠF ox
Ġsina lanta
Ġnagt angkang
Ġpinap anatili
Ġpakikipag t
PC SO
Ġpapas ukin
B ella
M am
b orn
j inog
Ġb icam
Ġv igil
Ġnagb anta
Ġig iit
ĠFar inas
ME LEC
ĠGuang dong
G ar
T s
i imbak
l amang
ĠN alaman
Ġko ment
st ick
Ġdevel op
Ġrem ain
ĠGonz aga
Ġloc ation
Ġdeta ils
Ġsa f
Ġsum ampa
ĠBal umbon
Alam in
agn osis
ĠCha vez
ĠPanl alawigan
f ly
r ero
ak et
ut ak
ĠB FP
le hem
Ġcon stitu
ĠEn han
Ġnapak aganda
Ġmaka alis
CO M
Ġul tim
Ġamb isyon
Ġpagtut ukoy
Ġpray er
Ġkinok ondena
Ġnagsus umikap
M ismong
Z A
as ada
ĠM aga
ĠS oda
Ġum ento
ard e
Mag iging
imp alak
Ġlit tle
Ġwar ranto
ĠKazakh stan
Ġb abagsak
ĠM alam
ĠR eme
Ġina gaw
irap a
ĠNag h
Ġpaghah alo
Ġfil ed
ĠCap iz
ikas uhin
Ġhurisd iksyon
ĠContin ue
ĠNol asco
Ġprok lamasyon
i ibigan
Ġt oy
Ġpagb igyan
Ġop ens
ĠIn ang
ĠY O
Ġwork sheet
me ga
vers ation
Ġsuport ang
ĠAP EC
St ation
Ġmagug ustuhan
p ite
Ġt xt
Ġd ino
Ġmag mam
Ġmag asin
and usay
ĠW a
Ġag i
Ġnegos yong
Ġdep ort
ĠSc ott
Ġnapip intong
B ahagi
ag ency
Ġc row
Ġko ordinasyon
Ġum pis
ey e
ĠZ TE
Ġtak en
ĠPagh ahanap
Ġdeterm inasyon
Ġcompla inant
F irst
Ġs ilya
Ġt orn
re alize
ĠN angyari
ac qu
Ġtum ahan
Ġtak tika
ition s
Ġnagsis it
B awat
Ù Ħ
Ġs co
on i
or syon
im ize
ĠB urn
ĠT ech
ĠR y
Ġmal al
Ġkap ahingahan
inas uhan
Ġmagp atakbo
ev es
amant alahan
ĠCon chita
ĠSy rian
Ġpangh awakan
hhhh hhhh
asy ahan
ercis es
g un
ut ed
ĠB asa
Ġmak i
ĠMas cus
ĠPro duct
Ġaw are
erb ina
Ġekzoderil om
Ġunder wear
ĠJess e
ĠGag anapin
Ġtaw o
ĠDol phy
Ġbuns ong
g ay
k ins
it ory
ĠM ey
Ġpr osp
ew alain
ĠSt udio
Ġ10 5
az z
ĠParas ito
ulag ta
ĠSwed en
erbina fine
Ġc lo
ain ts
Ġbig kas
Ġpah irap
ĠSp anish
Ġnagsis isi
ukl apin
ĠHigh er
ym ous
Ġty phoon
ĠTy pe
Ġsaga bal
Ġs iniguro
ĠM ona
Ġpant ig
Ġkumpl etuhin
adal hin
Ġpros ecutors
ĠNizh ny
H inamon
y eta
Ġp inigilan
ig ar
ĠO x
Ġpagb asura
Ġgina mpanan
Ġpagt igil
Ġnakak amit
Ġwh istle
Ġnakik ibahagi
Ġpors yentong
abor ito
uklas ang
I katlong
M o
ag upit
Ġip alabas
Ġnah awaan
Ġsiy ensya
Ġev al
Ġallerg ic
B ET
ah iram
Ġpam imigay
Ġkon stitusyon
Ġtumat ahan
Ġitinat akda
Ġipinap aliwanag
Ġemb assy
Ä ģ
ĠS B
ĠS elf
ik inig
ĠB antay
Ġth ousand
ĠNational ist
Ġins tead
rat iko
Ġatt ention
Ġkikita in
M akat
S amantalang
up i
Ġnak aw
Ġlum isan
Ġpinak at
Ġpl ates
Ġnakak ab
Ġbal ot
ĠVill af
ĠBen ito
Ġ199 4
Ġsib ilis
ĠAre valo
forc ers
ĠCan cer
Nakat akda
Ġphys ics
Ġgl iser
Ġrepresent asyon
Ġkatamt amang
U l
d ahang
z b
Ġk anal
ĠS usunod
Ġg n
to ms
le vel
Ġi imbestigahan
Ġtat apusin
Ġnagk amit
Ġbar aha
ĠAc c
ĠTa ft
Ġhang aring
rap e
Ġann ual
Ġaqu arium
Ġbana na
h aw
Ġm inistr
ĠM etal
ĠL ose
ug id
Ġtr i
Ġsin uri
ery eng
Ġcar ry
Ġnakap al
ĠKab aba
Ġsumasak si
Ġexpert s
ĠBalag tas
IGH T
N BP
d ers
Ġs ources
Ġs uwero
ik siyon
ĠD alhin
Ġpina layas
Ġkum akal
Ġsum m
Ġi di
Ġpagpapat awad
ĠBar retto
ĠSin imulan
Ġlar va
Ġgus ot
ĠIb igay
Ġmain land
Ġnutr itional
U AN
Ġg olf
Ġf ib
Ġth ighs
Ġag a
ĠBibl iyang
Ġprot ective
Ġmaib abalik
Ġident ity
Ġdiagn osis
P lay
Ġh ayag
ĠK rystall
ĠT it
ĠW end
ill ano
uwal hating
Ġkaw atan
Ġep iko
ĠAppl ication
D C
t ech
ag am
Ġk its
Ġl us
ĠP uro
ĠP WD
ig ilang
ĠC ON
ĠK asalukuyang
oc r
Is inalin
In irek
AR ES
Ġtreat s
Ġtiy ahin
Ġgl ut
Kap wa
Ġpinakad akilang
Ġpagrer etiro
ĠMangg agawa
ĠDimex idum
ag na
ap hy
Ġina y
Ġpak akak
ĠMe dic
Ġint ensive
Ġkontr akt
ĠLabor atory
Ġball ot
M ataas
T ayo
W orld
ar apat
Ġre ck
Ġre match
ĠE ff
alan se
Ġkag alang
Ġbul letin
ĠY es
ĠNak ipag
ĠVill arin
ĠRe uters
ĠFac ial
Ġpalay ok
ĠSAR S
R ep
na me
Ġsa gr
ag usto
Ġt res
ĠD ian
Ġni ini
ĠN ev
ud ence
Ġsum ulpot
Ġpinakam adaling
Ch inese
Ġacc used
Gina gawa
ĠSte el
ĠProc lamation
Ġp ayong
ul ug
ĠL ist
ĠL ear
Ġmak ain
tr ap
Ġpl ayoff
Ġco al
Ġ9 3
Ġcol umn
Ġevangel io
ĠS ORI
Ġnat anggal
Ġpinak ik
ugna yang
Ġ199 3
Ġne uro
Ġsuh estiyon
agap ay
C r
s ta
id ating
Ġma impluw
Ġe hekutibo
Ġv illa
Ġsus ubukan
Ġkun eho
Ġob vious
ĠLa ur
IC E
Ġidin ulot
Ġpharm aceutical
ĠSORI ANO
y es
Ġ uk
ĠS ep
ĠC ec
ĠK unin
Ġnat igil
Ġal t
ĠIs agani
ult s
Ġipinag lalaban
Ġse aman
Ġtumat ayo
Gina gamit
Ġpinagh along
Ġkamang yan
ĠDise ase
T at
k ahan
Ġmat angkad
Ġkas am
ĠJ ones
Ġman ugang
Ġpagt atakda
Ġmam ayang
Mag kakaroon
alig taan
Ġ0 1
ĠNar iyan
ĠKath ryn
ĠMayl alang
P uwede
R H
g ender
Ġp andaigdig
Ġe uros
Ġacc ident
ĠUk rainian
worm ing
sal om
Ġkakain in
ĠEnri quez
ĠValent ine
y ahin
it eng
ĠS uriin
ut il
Ġpang s
Ġip alagay
Ġip apa
Ġpana t
ĠU ma
ĠAl in
nak akad
ĠPagk astigo
Ġhih ilingin
Ġeng kwentro
ĠSand ra
bar ilan
Ġnakatat anda
" ?
T IN
c m
ga bihan
Ġnag ta
Ġc rash
ĠB ush
ĠO longapo
Ġtum utol
Ġmar gin
pas ya
ĠDoc tor
am utin
Ġas wang
if ungal
ĠSy empre
Ġfil ms
Ġstand ing
unl arin
Ġguar ante
B ul
V ER
ĠH ills
ĠG or
Ġar med
nal yn
Ġpres ence
Ġlal ung
wal ong
ĠAp point
Ġdiy ablo
ĠTe a
Ġprov ided
Ġkinas ihan
Ġpinagh irapan
uny i
Ġdialog ue
Ġgadget s
Pinab ulaanan
Ġmamm oplasty
emet ery
B unga
N apa
na h
Ġkal upaan
Ġop tim
Ġnin ang
Ġsan it
Ġconf idence
Ġmagm ukhang
ingay en
ĠPri ority
Ġmares olba
ah intulutan
Ġbag ang
Ġkong re
Ġmags isip
Ġel ected
Ġnagh uh
Ġchar ity
ĠPina totohanan
ĠHin ih
una r
ek eep
Ġnang hih
Ġmat alim
ĠF EU
angg alan
Ġmap igil
Ġres erb
Ġhum iga
Ġlik idong
Ġpanana mit
Ġkababa ihang
ias is
onz o
Ġinvest ors
ĠCy p
Ġmapak ali
Ġkwal ipikadong
ĠDI OS
Ġnireres peto
Ġd obleng
Ġo d
Ġka isipang
Ġmal ugon
Ġsum ubok
inar yo
Ġmor alidad
ĠJud as
ĠPo int
Ġded ikasyon
Ġkinah inatnan
Ġdit to
ĠSING AW
Ġs ip
Ġh eld
uh on
od on
Ġgina w
Ġmab alitaan
pl anong
Ġim igrante
Ġnagk at
20 17
red ited
Ġbik ini
Ġbolunt aryo
F er
Ġ( $
Ġmat ipid
ĠE R
Ġbat is
ilala an
Ġsp r
Ġmakipag s
ĠNak ab
net h
ĠTh ree
ĠJer icho
Ġmanag ers
Ġsent rong
lin lang
Ġmapat alsik
ĠLou ie
Ġnamay apang
g uni
t urn
re p
sa is
Ġnags umite
aal iw
iro t
Ġporsiy entong
f ungal
Ġd eh
ĠT ana
Ġnat ur
Ġmags asak
ĠBr ad
In t
Ġnakas anayan
Ġlip at
Ġhad langan
ĠÐ ¿
ĠNana wagan
ĠKapal aran
P er
Ġb ulangan
Ġh ubog
ig iit
ĠD or
Ġr ural
ĠR oco
Ġmagp asok
ish ment
ahal intulad
ĠLit tle
F ungus
ah alang
ik ta
Ġkal alagyan
Ġtag abili
Pag p
IT AS
PC G
nakakad to
G ag
Ġk uro
ul is
ian ces
Ġdis enteng
ĠCusto m
ĠSar ili
Ġtik tikan
ND F
ĠSmart matic
ĠRh ian
Ġkrist al
B E
k anya
s yn
Ġp okus
ad vant
Ġmag inoo
ol der
Ġpagk amit
qu ote
Ġnagsis is
Ġph il
Ġtinatawag an
ĠMor ente
Ġrequ ires
ĠAlf onso
Ġk endi
um anggi
re ach
up ahang
ĠK undi
imb o
Ġlo v
Ġj e
ress ive
Ġkil ig
ĠIm us
ĠSw ami
Ġpigil in
ĠParo jinog
ĠM J
Ġsin imulang
Ġnagl unsad
Ġhih ingi
Ġnapap a
Ġpu zzle
ĠApr ika
Ġn or
Ġl unch
ĠP ST
Ġc ulture
Ġpin ondohan
Ġoff line
ona ble
Ġmail abas
Ġâ ĸ
ĠPl ano
Ġtw ice
Ġmasus unod
iligaw an
KB K
Ġpreg nan
K ab
K adalasan
L L
ĠM ahalagang
Ġg arap
ir ong
ĠE sau
ud lot
Ġina abot
Ġrec all
log y
ĠMak akatulong
Ġent ity
Ġbro od
ĠTh en
13 5
ĠKab ataang
Ġsinis ikap
ĠChe ck
Ġvic tory
Ġtransmit er
1 000
M or
Ġw ants
ĠN ok
ĠI nal
Ġnak umpisk
Ġkar umihan
ĠCh erry
uto t
ĠMa il
Ġabo ve
loc ation
Ġgub yerno
ĠPN R
ĠGeron imo
b uwan
Ġm ig
ĠP aint
ĠK alikasan
Ġmal ubha
ĠY ellow
ĠAb salom
Ġnamum uhunan
sas alita
Ġlot ion
Ġdang erous
1 30
H inah
P ANG
m ost
um en
ĠC arang
ic on
Ġka utusang
ĠL ut
Ġest im
Ã± as
roll ed
ĠJud ay
P Y
S ource
an ilya
Ġng ayun
al iy
on olohiya
Ġpa igtingin
ĠF ull
Ġpat awan
aka ila
Ġpak as
Ġprop osed
Ġpamb ab
Ġtut ulan
ĠBlack water
ĠTel epono
stand ing
Ġfound ing
Ġkampe onato
Ġbolunt aryong
utism uhan
B andang
il de
er k
um ilit
ĠH ung
ĠH alaga
ep er
Ġsh ift
ĠEsp en
Ġcol l
Ġplay ing
mar inas
ĠCrist ong
alap ot
Ġnakakal ipas
Ġadjust ment
b us
h arap
h ire
Ã ®
ur b
ĠG rey
Ang ie
Ġit ut
Ġsy ndrome
Ġbreed er
aws aw
Ġinhin yero
H B
s to
am inasyon
est s
Ġpagsas abwatan
Ġpah alagahan
ĠEx am
Ġint ens
mm mm
ĠBal asa
Ġmakal usot
Ġhous em
ĠHon da
ĠOpis yal
w agang
Ġk ulong
Ġl obby
Ġin om
[...]
